{
"D": 1,
"E": 2,
"H": 3,
"hello": 4,
"world": 5,
"Titancore": 6,
"Python": 7,
"Neural": 8,
"Network": 9,
"AI": 187530,
"Data": 11,
"Machine": 12,
"Learning": 13,
"OBGXra": 14,
"VL": 191765,
"UolKmG": 16,
"JXZXEm": 17,
"##qVFe": 18,
"##Rzzx": 19,
"zv": 178218,
"SSYLx": 21,
"##Dn": 182212,
"##WOyB": 23,
"##iQ": 186534,
"##nb": 149071,
"##ahYT": 26,
"##VmVB": 27,
"NhpKk": 28,
"cJG": 29,
"##HIL": 30,
"##ICdJ": 31,
"Kguwa": 32,
"##TOigzs": 33,
"##GOBHh": 34,
"aJEd": 35,
"Acz": 36,
"##DpJZd": 37,
"af": 164771,
"##FXME": 39,
"##DT": 193479,
"LL": 177615,
"##XnVt": 42,
"##cKShOp": 43,
"##MPYS": 44,
"##UqCR": 45,
"##gwAP": 46,
"##ULndHH": 47,
"##WuAD": 48,
"brcB": 49,
"##rJcJVx": 50,
"Ycngz": 51,
"##XRGka": 52,
"##TwA": 53,
"JF": 134882,
"glaYSI": 55,
"UxR": 56,
"##DYHLec": 57,
"##NCE": 58,
"zzq": 59,
"##bKNdx": 60,
"##Xc": 194118,
"RYNm": 62,
"NiQ": 63,
"atkmZq": 64,
"##cG": 193276,
"##rZWSo": 66,
"ZHlDMK": 67,
"##BLF": 68,
"Sl": 199799,
"ZtHCg": 70,
"JOf": 71,
"yE": 179851,
"cL": 178915,
"KB": 182373,
"##ktNPlZ": 75,
"uaUowp": 76,
"irk": 77,
"##RokFD": 78,
"##FCGOo": 79,
"VdIHd": 80,
"##ve": 170054,
"##aCAjR": 82,
"##Gm": 156694,
"##eCWl": 84,
"##HxwJP": 85,
"##zcVL": 86,
"##ywh": 70330,
"##fKq": 88,
"tX": 179252,
"sK": 197710,
"##hOJ": 91,
"dpN": 28348,
"Dv": 160958,
"LS": 181562,
"##Bmn": 19653,
"XS": 196571,
"Uk": 193468,
"##jnBC": 98,
"##jvOll": 99,
"##pp": 154016,
"kh": 186543,
"yGvi": 102,
"##CgCbw": 103,
"##pfuB": 104,
"JPlp": 105,
"##cb": 199409,
"##WcMH": 107,
"GKOqZb": 108,
"##npsh": 109,
"jP": 129142,
"##KI": 186723,
"##Brfi": 112,
"##KsRaNN": 113,
"vEg": 165292,
"##enxT": 115,
"JhY": 165224,
"Cs": 164772,
"##seyOr": 118,
"lXu": 76423,
"slPVZ": 120,
"yC": 180191,
"lvX": 122,
"ERqbe": 123,
"EU": 183744,
"ROsWN": 125,
"##XdASO": 126,
"jLPIPh": 127,
"##KCTGxU": 128,
"PKb": 129,
"VlNJ": 130,
"##ZTGmo": 131,
"Awn": 132,
"PbAZO": 133,
"poiErU": 134,
"aVWX": 135,
"##BZmq": 136,
"QAqGVz": 137,
"mhRi": 138,
"##hK": 189951,
"liSEKh": 140,
"##gw": 175988,
"oibX": 142,
"##nryz": 143,
"gEZhem": 144,
"##uz": 173054,
"YOIvD": 146,
"EFUyu": 147,
"TlQiJo": 148,
"##cg": 176712,
"tRyOtD": 150,
"##Wa": 196476,
"##nJxqhW": 152,
"AWEn": 153,
"##GnIfT": 154,
"##HTqa": 155,
"MVlhX": 156,
"YULuLS": 157,
"rV": 190347,
"SPHZts": 159,
"##Ri": 198828,
"##xUK": 161,
"##Jp": 194663,
"phk": 163,
"uAvKGw": 164,
"##MUbtEc": 165,
"dMY": 166,
"tlREMC": 167,
"xe": 151322,
"##pxL": 169,
"##AP": 193107,
"##irvH": 171,
"Cwg": 172,
"##tAQnf": 173,
"xXWGU": 174,
"qfWY": 175,
"FKx": 37210,
"dOTfVu": 177,
"##fTM": 178,
"##XhCS": 179,
"##wQJP": 180,
"##WQcu": 181,
"cjy": 182,
"##zsFBaT": 183,
"##bilT": 184,
"EJFcpY": 185,
"##JDFlwQ": 186,
"##juoCYc": 187,
"YhKeWv": 188,
"##mvc": 189,
"##NQACaP": 190,
"##YjqUq": 191,
"FLaFRr": 192,
"GtCix": 193,
"##Ot": 198109,
"##aKek": 195,
"##uhMkGk": 196,
"##EajoR": 197,
"##fdq": 198,
"IkdOV": 199,
"uIW": 200,
"jToX": 201,
"Qrn": 202,
"up": 169022,
"##Xxi": 204,
"##VRzAw": 205,
"fWBDct": 206,
"##FQkrPL": 207,
"mk": 101092,
"##Cow": 209,
"##wiBX": 210,
"##JyNwHu": 211,
"UCqP": 212,
"##wo": 150118,
"eNZx": 214,
"oqA": 215,
"CpVY": 216,
"oUjGH": 217,
"VsPITa": 218,
"wUtWo": 219,
"ky": 125622,
"ybeC": 221,
"GaeV": 222,
"SXgqR": 223,
"YbH": 224,
"##zQ": 191413,
"qY": 193519,
"##rNtC": 227,
"dO": 198816,
"##Hw": 167489,
"##BTj": 230,
"JMmbKh": 231,
"wVj": 149154,
"kad": 159585,
"##vYOGoJ": 234,
"ecO": 235,
"##ZLnmEa": 236,
"df": 87762,
"GTnPCw": 238,
"##Awi": 239,
"BxLKGa": 240,
"##aeMkG": 241,
"##ThLU": 242,
"##GV": 147372,
"##HKY": 244,
"##LvH": 245,
"GeH": 246,
"##HGTkiB": 247,
"##EB": 179021,
"##TUnb": 249,
"##DCNEXl": 250,
"gQuAvy": 251,
"##Xa": 189314,
"QQhd": 253,
"##qAYNi": 254,
"##ual": 73057,
"Snx": 256,
"##ORrhzB": 257,
"grszD": 258,
"jXTy": 259,
"on": 160919,
"IHz": 261,
"eQecS": 262,
"##gP": 183883,
"##YUUR": 264,
"biu": 265,
"MvhGo": 266,
"##SV": 181620,
"##Xg": 174670,
"##bbsDV": 269,
"##cSkgRF": 270,
"wM": 192833,
"ym": 168761,
"##FTx": 273,
"PKSAP": 274,
"##UqvF": 275,
"RM": 191198,
"##fbcFF": 277,
"ztHYM": 278,
"VP": 188508,
"##WKUlm": 280,
"aU": 160315,
"##KbpQt": 282,
"##oewZy": 283,
"##wu": 132254,
"kNxQuZ": 285,
"##ADZ": 286,
"##Kz": 97236,
"zohAaq": 288,
"##VXjsvz": 289,
"aM": 157852,
"mwWuGq": 291,
"##RGa": 292,
"##kjaDT": 293,
"##Mbm": 294,
"##xt": 174006,
"tUZaWJ": 296,
"UA": 135360,
"fw": 190059,
"HDq": 299,
"rwmxHY": 300,
"CxleO": 301,
"##tmyH": 302,
"PlIqZ": 303,
"QOK": 304,
"vgKj": 305,
"##KFp": 306,
"##bs": 147941,
"##NdWDsC": 308,
"rhPOC": 309,
"##QZving": 310,
"wvNd": 311,
"KQ": 198781,
"dd": 184029,
"JXa": 314,
"mQck": 315,
"##mEp": 14614,
"QithPo": 317,
"UXw": 318,
"tJIxPS": 319,
"##bAmvy": 320,
"##od": 195609,
"##tkTkk": 322,
"##GqNi": 323,
"##dFCQiG": 324,
"pPzLh": 325,
"##YPgcI": 326,
"##csF": 327,
"Rpnp": 328,
"IneSBt": 329,
"##Ad": 178192,
"gFHqkn": 331,
"##VKrThJ": 332,
"##DAJ": 333,
"##SlzC": 334,
"Uuhy": 335,
"fDD": 336,
"##VtqJ": 337,
"fB": 189498,
"##yrgi": 339,
"akwzp": 340,
"RhtePu": 341,
"##VgU": 39204,
"fEGLJ": 343,
"lehtE": 344,
"##ytZ": 345,
"##MOUwF": 346,
"##wKfe": 347,
"##iHfMi": 348,
"##dbpk": 349,
"orEA": 350,
"xFWAP": 351,
"kZ": 192929,
"VhZT": 353,
"##GLn": 354,
"FnNqaG": 355,
"Xk": 158595,
"gwnR": 357,
"Frkv": 358,
"LTWz": 359,
"##xSHxHF": 360,
"kShW": 361,
"Pl": 195473,
"dPlpLr": 363,
"##Lmmm": 364,
"jjlMhc": 365,
"##kZtS": 366,
"##OpnpM": 367,
"##ZYK": 37853,
"yMhE": 369,
"mDZryd": 370,
"##ElQZX": 371,
"##QOh": 372,
"FOA": 373,
"lSBLyZ": 374,
"##FAYQ": 375,
"OvcJDe": 376,
"##lD": 188638,
"Hj": 173567,
"GwpeW": 379,
"##UGhYEI": 380,
"yYoOD": 381,
"##FrEWFc": 382,
"##luDH": 383,
"TSrd": 384,
"##gKyH": 385,
"##MBu": 386,
"ry": 137468,
"##WU": 194445,
"##Eqqm": 389,
"##kpLgA": 390,
"FyCyam": 391,
"##RY": 184968,
"WauQ": 393,
"##qoOumL": 394,
"bwJWJA": 395,
"jo": 132197,
"##xrz": 111528,
"ZSLmHg": 398,
"##rsdn": 399,
"##CW": 197213,
"##Qo": 94551,
"##fB": 190474,
"##EBkfMA": 403,
"##SafBE": 404,
"XDv": 405,
"sMbIW": 406,
"ZS": 132480,
"VSWZs": 408,
"Vpa": 409,
"DEAFf": 410,
"ztWI": 411,
"##Bs": 192594,
"##pv": 187289,
"GV": 158076,
"##qWScd": 415,
"##ChZkj": 416,
"##Qc": 193125,
"##ddasMu": 418,
"##PJR": 419,
"lBlvaC": 420,
"##XiRtP": 421,
"##lBlFpI": 422,
"bzd": 423,
"zMkHoM": 424,
"##shJx": 425,
"##BmYchs": 426,
"fG": 184037,
"##gS": 197916,
"##EuR": 429,
"yi": 196990,
"##tVH": 431,
"WX": 183351,
"RIA": 433,
"xkd": 434,
"egBX": 435,
"##tQSYNr": 436,
"##swvxMl": 437,
"##gTv": 5601,
"LA": 120389,
"Ug": 197701,
"##uw": 153276,
"fgARTN": 442,
"cE": 184987,
"lIP": 444,
"##SQhFh": 445,
"fh": 191000,
"##JfHcnt": 447,
"lIEKO": 448,
"dDUbxW": 449,
"UqiU": 450,
"##zilh": 451,
"##EDt": 452,
"RH": 171495,
"##GPP": 454,
"##lO": 183097,
"##TxCsvB": 456,
"##addic": 457,
"##myWdK": 458,
"Wwlbo": 459,
"##vCd": 460,
"gSU": 461,
"##uaHPf": 462,
"hDx": 463,
"AzOuv": 464,
"ACLnt": 465,
"##fHChRb": 466,
"##IF": 174591,
"DBzmLk": 468,
"##Qs": 130755,
"WgBm": 470,
"##nklcV": 471,
"##eVckq": 472,
"##zgNR": 473,
"##QNlK": 474,
"##xRpq": 475,
"##HE": 172980,
"ofFNM": 477,
"eRikhA": 478,
"##HH": 109484,
"##vByZt": 480,
"##dKuJz": 481,
"##ebOB": 482,
"xYRzX": 483,
"##WgaEyD": 484,
"##HvM": 485,
"Gd": 181456,
"EfNo": 487,
"VMcMbP": 488,
"zXYvGL": 489,
"##tNZ": 490,
"##OTUpc": 491,
"HAw": 492,
"##UyYYpL": 493,
"##Tlgmf": 494,
"##dL": 185479,
"##oyrvb": 496,
"PsOLHM": 497,
"cckJdi": 498,
"ND": 164795,
"##VHOP": 500,
"uMSKWQ": 501,
"DlP": 502,
"FQv": 47716,
"##Uv": 197495,
"UgElNC": 505,
"jvlczK": 506,
"Wo": 178380,
"##GQiun": 508,
"##mHS": 509,
"##Wb": 186791,
"rklOy": 511,
"UhVebJ": 512,
"##qSj": 513,
"##BvgrIo": 514,
"##fk": 175597,
"##vy": 194687,
"##up": 189793,
"zRHq": 518,
"kElK": 519,
"##lZdV": 520,
"##jZuL": 521,
"NaztLf": 522,
"wi": 155169,
"bKfDJo": 524,
"SFIu": 525,
"##URoua": 526,
"##Kl": 186314,
"##Pq": 190566,
"##pfj": 529,
"GEh": 530,
"YW": 186975,
"eqOVj": 532,
"##Ftfys": 533,
"cvGe": 534,
"##DYtca": 535,
"zgtP": 536,
"##UqdM": 537,
"DOGz": 538,
"ZNM": 539,
"##xNGXFz": 540,
"##Gag": 541,
"jSMD": 542,
"##APb": 543,
"yUPJ": 544,
"##Ar": 193578,
"##gRC": 546,
"##GDXd": 547,
"AYjmhO": 548,
"gg": 189377,
"UZ": 125214,
"MpkN": 551,
"##khPxh": 552,
"##uX": 176587,
"Kp": 154682,
"nBnmq": 555,
"kXx": 556,
"##OREs": 557,
"##QM": 197604,
"##zeoi": 559,
"qF": 69385,
"yhvtZ": 561,
"##tv": 197274,
"DtSWeD": 563,
"##gjSb": 564,
"npckum": 565,
"hS": 188115,
"##BPeBz": 567,
"KUQBCV": 568,
"LXn": 569,
"mp": 160472,
"##oEVC": 571,
"qwH": 572,
"##WBOT": 573,
"##Wf": 186061,
"##lBHT": 575,
"##TDLvO": 576,
"uoHB": 577,
"elNyI": 578,
"##dcW": 86661,
"dGMueQ": 580,
"azUHe": 581,
"RpcXp": 582,
"sEh": 583,
"##dj": 145519,
"##vPkUwX": 585,
"##Pa": 178001,
"bI": 179656,
"##rV": 195728,
"##rLfzat": 589,
"##HRoQe": 590,
"qOhoB": 591,
"##IoSnjd": 592,
"OaOZWh": 593,
"JhB": 83949,
"vjdCds": 595,
"##cj": 74637,
"##Xr": 97129,
"##JEIg": 598,
"usEmYX": 599,
"smwTW": 600,
"MZp": 601,
"GQqTUF": 602,
"QOpusS": 603,
"FflQz": 604,
"##oWGXsW": 605,
"OD": 184930,
"##pkvsr": 607,
"##TUluaB": 608,
"Ksjm": 609,
"##fUVqus": 610,
"##EkfF": 611,
"##sfvqh": 612,
"uO": 131367,
"##bEMkAN": 614,
"##RcoFuw": 615,
"UqI": 616,
"sC": 168444,
"##cSAJ": 618,
"MC": 178370,
"VWHFb": 620,
"sTtZHG": 621,
"lZuw": 622,
"##ytkvy": 623,
"WJrM": 624,
"AxuwXG": 625,
"fGfN": 626,
"##QyjxZ": 627,
"##hJI": 629,
"XnCT": 630,
"##BZkx": 631,
"OUO": 632,
"Cbi": 633,
"vdBvBa": 634,
"##uZ": 162267,
"VGme": 636,
"yfRMh": 637,
"VBhXX": 638,
"vbzIP": 639,
"##eQByS": 640,
"GvFS": 641,
"##LaLe": 642,
"##WPaUrN": 643,
"GQRM": 644,
"Rzebc": 645,
"maC": 646,
"##xYOL": 647,
"JQde": 648,
"##WStfYM": 649,
"YWw": 650,
"LiBUue": 651,
"Wv": 177378,
"##kAweOh": 653,
"##DU": 186511,
"##WKB": 157786,
"IVDQa": 656,
"##yfpp": 657,
"##hFt": 658,
"QnrnTu": 659,
"##by": 199716,
"##Ib": 172253,
"##GyRo": 662,
"glwsk": 663,
"##CWGeK": 664,
"##XncdL": 665,
"##MqN": 666,
"##IRoyPw": 667,
"he": 191700,
"hvJhT": 669,
"lUDs": 670,
"JndkE": 671,
"##CbDN": 672,
"##PEmugP": 673,
"dWNB": 674,
"DSlmA": 675,
"qVVb": 676,
"##iU": 128830,
"##oyBra": 678,
"mmTBr": 679,
"##ji": 104743,
"Sw": 187948,
"##bZ": 79189,
"EBL": 683,
"AlK": 100541,
"sjs": 685,
"##FyPd": 686,
"SQBVI": 687,
"##AHDa": 688,
"##uqm": 689,
"SAWc": 690,
"##RK": 182312,
"##QWnpJ": 692,
"##ihN": 693,
"##fXwBj": 694,
"##OL": 198640,
"VREuiL": 696,
"##CgBl": 697,
"##CbCqV": 698,
"##uOJYuP": 699,
"##IfOCvc": 700,
"##AJkT": 701,
"xXQz": 702,
"##tyv": 703,
"TAqP": 704,
"##wC": 169296,
"qTIUsc": 706,
"Zx": 196065,
"UlKk": 708,
"zn": 197353,
"WYThux": 710,
"rpchxi": 711,
"##PE": 192315,
"mrudV": 713,
"##HATfg": 714,
"zlpn": 715,
"Yaq": 716,
"##bCLB": 717,
"##pK": 174771,
"AInck": 719,
"VdnonF": 720,
"RtWkD": 721,
"dBaJeH": 722,
"##pmkuSr": 723,
"lPSf": 724,
"##tZpGN": 725,
"iNyB": 726,
"##zjoVud": 727,
"ptGsXJ": 728,
"##TdtSIE": 729,
"RdIfv": 730,
"##DqbEW": 731,
"##Vloumx": 732,
"##GdSL": 733,
"##CxC": 734,
"##jXEOgN": 735,
"fRC": 736,
"ziyF": 737,
"nO": 187041,
"##fcoIgf": 739,
"cju": 740,
"##RKSop": 741,
"nGHKYG": 742,
"zYINir": 743,
"kZQAF": 744,
"##lAZnj": 745,
"##LKbzs": 746,
"qm": 156960,
"##pTJc": 748,
"##hB": 191041,
"##ROyGL": 750,
"RWAPw": 751,
"##dtn": 752,
"JNt": 753,
"##avlzxh": 754,
"uclSH": 755,
"##sJtn": 756,
"ElVEV": 757,
"##Dzj": 758,
"##lAhpGz": 759,
"puL": 760,
"##zWsfJq": 761,
"roSoV": 762,
"NFeTDL": 763,
"iwgmjO": 764,
"##ieB": 765,
"##KHAj": 766,
"##gKEt": 767,
"MDSv": 768,
"vQ": 175668,
"qrXNkd": 770,
"vMdM": 771,
"YPh": 772,
"##zLFXhw": 773,
"qqdhi": 774,
"XZfLaR": 775,
"fC": 28626,
"kRkF": 777,
"##MB": 196828,
"##cBBmJ": 779,
"BLZKRT": 780,
"IVv": 781,
"##Eup": 782,
"fDst": 783,
"##TTutrw": 784,
"##dCksxx": 785,
"##oy": 135346,
"PhgnN": 787,
"##UF": 158490,
"##ez": 193439,
"##HeGOFd": 790,
"##EY": 154383,
"CgRfLc": 792,
"##EZqDyX": 793,
"VsdBKJ": 794,
"glMjut": 795,
"##vfXQcR": 796,
"HiM": 797,
"##El": 104991,
"##YWtvge": 799,
"jHuM": 800,
"##SsNXaQ": 801,
"MXTqt": 802,
"##Ek": 183672,
"mdev": 804,
"##pVXRfQ": 805,
"fhx": 806,
"bSKcdo": 807,
"Jz": 165959,
"##brkkI": 809,
"##diLf": 810,
"##yzkEL": 811,
"##fCVxxT": 812,
"EzRs": 813,
"Wxokp": 814,
"ezmOci": 815,
"RWeGqt": 816,
"Sn": 157209,
"YJxl": 818,
"##FGbDM": 819,
"yU": 180921,
"##GmAL": 821,
"fwkEqf": 822,
"##CKRh": 823,
"##zOCDNU": 824,
"YNrcVL": 825,
"bGVu": 826,
"##MIKHi": 827,
"##iPFKeL": 828,
"##BAJhMh": 829,
"iPHYU": 830,
"##qpJjR": 831,
"UrWk": 832,
"##zd": 99473,
"##dgPj": 834,
"##fQmcvt": 835,
"##baWO": 836,
"##sqoPk": 837,
"##ZLh": 838,
"##PGyp": 839,
"##il": 175100,
"##SdcXm": 841,
"HDeNM": 842,
"##XuFug": 843,
"##Xczq": 49031,
"##jVaRT": 845,
"##iUhlj": 846,
"##qHpY": 847,
"##HXoOu": 848,
"CcBp": 849,
"##OFrB": 850,
"SuQkkr": 851,
"DBjHQa": 852,
"##purA": 853,
"fGOCi": 855,
"##qRlx": 856,
"##vzv": 857,
"##hYpK": 858,
"QKrCl": 859,
"##kND": 59799,
"KUXh": 861,
"DHsAj": 862,
"##Hdph": 863,
"##TMt": 864,
"##KdSY": 865,
"##Em": 196367,
"sfGll": 867,
"##BjfV": 868,
"uyLA": 869,
"Bpg": 870,
"##UvL": 871,
"Wwh": 872,
"##Ix": 176986,
"fXfCFQ": 874,
"##kk": 176358,
"##sBlH": 876,
"##TDVPvp": 877,
"BCP": 878,
"heBmZ": 879,
"##ujdIf": 880,
"yyK": 881,
"##aV": 148153,
"##je": 143139,
"##Wt": 176645,
"##Hexw": 885,
"MGD": 886,
"##mvHdV": 887,
"ornVz": 888,
"##WArr": 889,
"##IEEtc": 890,
"wD": 191172,
"##CPrGx": 892,
"##gzbUh": 893,
"##MDN": 73806,
"Mothk": 895,
"mYuhUo": 896,
"##Jtb": 162132,
"##tCAkpq": 898,
"Epao": 899,
"OFsCVs": 900,
"KOwWR": 901,
"##hb": 115360,
"gIbmqf": 903,
"OgacsD": 904,
"##qNh": 905,
"nJiePt": 906,
"##BvFEw": 907,
"wQ": 176733,
"Wd": 191548,
"JeoaD": 910,
"##ohIi": 911,
"xX": 196080,
"Wof": 913,
"##nIiVHD": 914,
"##nvpA": 915,
"##cKOiW": 916,
"qndVTs": 917,
"ByWgyC": 918,
"XCPQAO": 919,
"##cPe": 920,
"RjOa": 921,
"XwNWEl": 922,
"##Pm": 166417,
"##mYSjqe": 924,
"##diF": 925,
"##gKhAjK": 926,
"##GPqj": 927,
"Asjpfr": 928,
"pZ": 178140,
"DJqZM": 930,
"##HWS": 931,
"oEZjO": 932,
"##NXE": 151310,
"sj": 147661,
"##ribjL": 935,
"Bbctik": 936,
"##RkSYcA": 937,
"TBfZ": 938,
"dX": 143478,
"##MpMKB": 940,
"##pMv": 941,
"##qsDUcf": 942,
"oL": 197374,
"##ai": 174509,
"dc": 195433,
"##rWpWX": 946,
"JqOSnv": 947,
"azU": 948,
"EgD": 949,
"mLgzd": 950,
"egAYCR": 951,
"Qllu": 952,
"##Vqfuig": 953,
"cVn": 954,
"yHWfSG": 955,
"FdE": 956,
"lfT": 957,
"QPwyM": 958,
"##TOYyK": 959,
"##pZQimd": 960,
"##kpH": 961,
"ucMYj": 962,
"##KG": 117530,
"##bgu": 964,
"##qLb": 141994,
"TqK": 50993,
"FG": 187183,
"DXeDpF": 968,
"##ZOPmTn": 969,
"TXiPbk": 970,
"##lDEiyg": 971,
"##kW": 150153,
"pHvl": 973,
"ICfIfl": 974,
"wNYtoZ": 975,
"GPXQr": 976,
"##gJzXp": 977,
"##ZIYLQ": 978,
"##MwFEB": 979,
"##JqpkM": 980,
"##KoWQ": 981,
"VLaX": 982,
"##goCCCW": 983,
"##Vk": 153804,
"##qtu": 985,
"YYwEBG": 986,
"ID": 186424,
"##gftOQ": 988,
"TBi": 989,
"RDWBoi": 990,
"HzImwB": 991,
"KE": 162131,
"##hHNnH": 993,
"##QyiqdH": 994,
"##oZjOx": 995,
"Fhe": 996,
"##rO": 167751,
"GCyUP": 998,
"Ro": 191690,
"##CFG": 1000,
"##TKQzn": 1001,
"zmPtYu": 1002,
"gAcC": 1003,
"CwQCP": 1004,
"VGk": 1005,
"##njfI": 1006,
"##jjwlO": 1007,
"YF": 198017,
"RLEOJ": 1009,
"nXvY": 1010,
"##HbUeZl": 1011,
"##vwWm": 1012,
"Xq": 169755,
"##LHZH": 1014,
"##URdJ": 1015,
"it": 138443,
"##NKlh": 1017,
"##uOAAxt": 1018,
"##Ws": 140295,
"OkV": 112454,
"AT": 185032,
"pX": 190162,
"##ob": 198797,
"##Nvhq": 1024,
"##mRSdHz": 1025,
"drhVlw": 1026,
"##vHreI": 1027,
"##WVgjJ": 1028,
"##pkZ": 1029,
"NCrj": 1030,
"##bq": 187339,
"znFqm": 1032,
"xgv": 1033,
"##qNx": 1034,
"PjtVf": 1035,
"##ugY": 67428,
"##mzg": 183093,
"qoRr": 1038,
"##meWmu": 1039,
"##xc": 169293,
"LcfZiu": 1041,
"DZy": 1042,
"##LcBQL": 1044,
"##XXVJQq": 1045,
"##rOM": 1046,
"##ZifyWz": 1047,
"##wdfE": 1048,
"DwG": 1049,
"##khNBJ": 1050,
"ExrvKW": 1051,
"lzCJ": 1052,
"##UR": 182414,
"yfYtDv": 1054,
"juzN": 1055,
"##otY": 1056,
"AX": 172104,
"oCrwR": 1058,
"##gn": 181492,
"kKWbA": 1060,
"##UwiPpm": 1061,
"##wlvDaB": 1062,
"mfMo": 1063,
"##KE": 159069,
"##vMsPvX": 1065,
"##caD": 1066,
"UuFNe": 1067,
"##uQxkk": 1068,
"eC": 173642,
"XmTTt": 1070,
"##gakyqk": 1071,
"omV": 1072,
"QJ": 170519,
"cJurq": 1074,
"AV": 199602,
"Wqnghp": 1076,
"##yEWJtQ": 1077,
"##hnWk": 1078,
"Hp": 151725,
"Qzgf": 1080,
"##OzNSno": 1081,
"##PnAR": 1082,
"##CQA": 1083,
"##OzhKzp": 1084,
"lfjSKy": 1085,
"##zMUFY": 1086,
"auzPu": 1087,
"my": 197790,
"##yAha": 1089,
"bVe": 1090,
"ULk": 1091,
"##PAqMw": 1092,
"hK": 148010,
"mf": 191862,
"##flLQ": 1095,
"##ZhNq": 1096,
"HhZN": 1097,
"smXs": 1098,
"vWvEi": 1099,
"##lfmJik": 1100,
"sEOC": 1101,
"##btkj": 1102,
"##oKUn": 1103,
"##PB": 177158,
"##Gi": 185837,
"##cB": 96129,
"##pSbU": 1107,
"##JKSJ": 1108,
"##mXLsSg": 1109,
"akovuB": 1110,
"##KHR": 1111,
"gMUv": 1112,
"##MQnt": 1113,
"##KiD": 1115,
"##Fi": 120153,
"BTFU": 1117,
"##YSn": 1118,
"OZ": 179300,
"qJs": 1120,
"tJvquu": 1121,
"##kTI": 1122,
"NSndbY": 1123,
"##sRsg": 1124,
"##ejAJg": 1125,
"Oexzvo": 1126,
"lw": 170461,
"qJC": 1128,
"Ts": 159601,
"##tXwAwY": 1130,
"##kx": 184336,
"##eIzEZw": 1132,
"gD": 177769,
"Jh": 93682,
"##pwShum": 1135,
"VZTQG": 1136,
"solG": 1137,
"##WDAaMh": 1138,
"##gAAHsg": 1139,
"Dc": 192360,
"UcYbw": 1141,
"mDvjI": 1142,
"GWNrG": 1143,
"##IfqG": 1144,
"NR": 195718,
"sGcjkU": 1146,
"dj": 198489,
"CqHIM": 1148,
"##YJrEK": 1149,
"herrvT": 1150,
"##iTYbT": 1151,
"##AvGPnj": 1152,
"##rYrAt": 1153,
"##MVQ": 61103,
"##uL": 130140,
"jMGkQ": 1156,
"YbBRic": 1157,
"fkt": 64450,
"##vxSJ": 1159,
"KV": 192110,
"MDERE": 1161,
"##kzwq": 1162,
"Zgf": 1163,
"##kppeJB": 1164,
"##BNt": 90556,
"XxNMGy": 1166,
"rwb": 193792,
"iRPnKo": 1168,
"jOjj": 1169,
"##pYJ": 14663,
"KSxoi": 1171,
"eWFvDL": 1172,
"##yc": 172823,
"Dpdum": 1174,
"##LiiVUj": 1175,
"VU": 177243,
"lg": 181872,
"##DdiEZW": 1178,
"XjNAKr": 1179,
"mP": 193697,
"##jyXc": 1181,
"##ZQLfuT": 1182,
"##YWjvac": 1183,
"##RgTg": 1184,
"##Fwj": 1185,
"kTEsE": 1186,
"zckL": 1187,
"##Qi": 196345,
"##ZQPOco": 1189,
"##egxGZv": 1190,
"VKk": 1191,
"lVCKu": 1192,
"wt": 124101,
"##rwBHj": 1194,
"CGOlGx": 1195,
"AchSxX": 1196,
"yVC": 1197,
"##RCD": 1198,
"##bPbz": 1199,
"FpCJs": 1200,
"##DTKG": 1201,
"##JETHZh": 1202,
"##uPob": 1203,
"xyq": 1204,
"UZUhlg": 1205,
"##BqWs": 1206,
"Kqdq": 1207,
"##TKKDOD": 1208,
"##YfwPcO": 1209,
"##MKm": 1210,
"GAqE": 1211,
"jurY": 1212,
"##Es": 196339,
"CmM": 1214,
"##tgKa": 1215,
"##hDun": 1216,
"hTipV": 1217,
"xQNz": 1218,
"##gGx": 1219,
"TG": 185501,
"##qbGWbg": 1221,
"wGBlV": 1222,
"##GZPfW": 1223,
"CieMQ": 1224,
"Qs": 191616,
"##fmPsqv": 1226,
"Ls": 194974,
"YkCoBu": 1228,
"##BoebhW": 1229,
"##td": 188480,
"nEq": 1231,
"aVL": 145770,
"vCwV": 1233,
"zW": 194837,
"##uMyJ": 1235,
"##ip": 167408,
"##jchSw": 1237,
"##FE": 177432,
"urLsq": 1239,
"OT": 164852,
"LjoO": 1241,
"##QjTmC": 1242,
"XL": 165906,
"mCWc": 1244,
"##zN": 163561,
"##wCpHla": 1246,
"HaIFJU": 1247,
"FPkR": 1248,
"##rlQVm": 1249,
"LcEc": 1250,
"##Di": 181254,
"##VD": 180305,
"##xOqs": 1253,
"dYpWGR": 1254,
"##ccOy": 25436,
"##KHUMJ": 1256,
"##MHwF": 1257,
"eYKep": 1258,
"##OSh": 1259,
"##WNKW": 1260,
"UO": 153862,
"PI": 197222,
"WSpgU": 1263,
"nnXzrh": 1264,
"##Seh": 1265,
"##raSwcZ": 1266,
"##Zi": 185634,
"cyq": 1268,
"hSK": 1269,
"ADuOb": 1270,
"##RadtIS": 1271,
"##XBZ": 1272,
"NfQv": 1273,
"uNVzFZ": 1274,
"##tOHqo": 1275,
"##Zel": 1276,
"##XeD": 1277,
"##pgOlN": 1278,
"##JxYEJ": 1279,
"##mr": 152669,
"##anPf": 1281,
"JHCkx": 1282,
"FXGG": 1283,
"ncWS": 1284,
"##Gkxgj": 1285,
"##Jsexsu": 1286,
"##MPaWP": 1287,
"Fa": 188146,
"XAac": 1289,
"##iV": 143004,
"VOmHj": 1291,
"EjPw": 1292,
"njAyX": 1293,
"MEJ": 1294,
"##gQxq": 1295,
"##cEqMF": 1296,
"qOhXA": 1297,
"Voue": 1298,
"XzehVJ": 1299,
"##sOsIDX": 1300,
"##tzsHr": 1301,
"##MSKoKm": 1302,
"##lKlii": 1303,
"wbnlA": 1304,
"LY": 155716,
"##WY": 139742,
"ZPj": 1307,
"##eTM": 1949,
"wVhBr": 1309,
"nYtB": 1310,
"soq": 1311,
"WmNjji": 1312,
"Lsz": 1313,
"tBc": 1314,
"##PATC": 1315,
"oi": 177358,
"##PMuTXf": 1317,
"dmTbN": 1318,
"##gijPI": 1319,
"beRTm": 1320,
"hrgFQ": 1321,
"VIVX": 1322,
"vKvjS": 1323,
"##Yk": 165378,
"aMIMb": 1325,
"dpY": 1326,
"Ivz": 176879,
"Kv": 199082,
"GRP": 1329,
"ZnIna": 1330,
"##OPmN": 1331,
"Nav": 1332,
"##CfsdT": 1333,
"PRHuQ": 1334,
"swW": 1335,
"DnVY": 1336,
"tJIRO": 1337,
"##rVjRBb": 1338,
"zFzH": 1339,
"##Vz": 172484,
"vwZGy": 1341,
"##xfImx": 1342,
"HVhCTX": 1343,
"##SQ": 95615,
"RIq": 1345,
"##SH": 177428,
"tHyzQW": 1347,
"##Sju": 1348,
"Fxv": 1349,
"fWl": 1350,
"##et": 195755,
"DRnti": 1352,
"XhaFl": 1353,
"##QGe": 1354,
"##ln": 171890,
"##YnCA": 1356,
"xmxP": 1357,
"##gaG": 1358,
"##YG": 190528,
"##fiLVQ": 1360,
"RA": 197013,
"eR": 189737,
"sJ": 195988,
"eM": 189070,
"yFTpL": 1365,
"##iUxL": 1366,
"PWO": 1367,
"slvXYy": 1368,
"lYdiar": 1369,
"##ZiB": 1370,
"XvM": 69307,
"IitMu": 1372,
"kkmZp": 1373,
"YrIO": 1374,
"xLPG": 1375,
"iIkMbr": 1376,
"##iDa": 1377,
"WiAr": 1378,
"gI": 188370,
"Pwgre": 1380,
"mHrlOj": 1381,
"##mhTSbE": 1382,
"##DFe": 1384,
"##HvZNz": 1385,
"ER": 188890,
"Pxzjx": 1387,
"##nuZVzL": 1388,
"##xCYM": 1389,
"##Isrc": 1390,
"GC": 192248,
"##qkgoo": 1393,
"tMKJ": 1394,
"ZtLo": 1395,
"Lct": 1396,
"YKtM": 1397,
"##FkdJTC": 1398,
"##aG": 127354,
"##SPfTcA": 1400,
"XStcXL": 1401,
"YMMc": 1402,
"##YMuC": 1403,
"iYGct": 1404,
"##AmS": 1405,
"##SC": 167055,
"##kzZaAd": 1407,
"##BNG": 1408,
"RlNz": 1409,
"##chc": 1410,
"##jtKnsj": 1411,
"##qY": 196448,
"kokRQ": 1413,
"##yHvyr": 1414,
"ZL": 189165,
"KbEj": 1416,
"##zGmUta": 1417,
"##olHVdm": 1418,
"##OVyPXS": 1419,
"zmoc": 1420,
"ziagc": 1421,
"##ObcVW": 1422,
"##GUIj": 1423,
"KRXuw": 1424,
"##DlRi": 1425,
"Ma": 198317,
"##cyQqa": 1427,
"##fIlkvV": 1428,
"aRDBOL": 1429,
"##JADqJ": 1430,
"##rHukRh": 1431,
"##xoU": 1432,
"##Aw": 127399,
"SJ": 189567,
"##WTKEU": 1435,
"cqC": 1436,
"fg": 196693,
"##ECct": 1438,
"##THq": 1439,
"Az": 137028,
"yYVEq": 1441,
"WJ": 178757,
"##gEEni": 1443,
"##se": 194823,
"hZmUw": 1445,
"##JIy": 1446,
"##QUtI": 1447,
"xLDu": 1448,
"vYAt": 1449,
"##nBB": 1450,
"dfc": 1451,
"##tru": 1452,
"##DPmp": 1453,
"##oITUA": 1454,
"HPOGlm": 1455,
"Psa": 1456,
"WAGBc": 1457,
"##XU": 184481,
"##aN": 146036,
"##fucH": 1460,
"vtNEIo": 1461,
"lKgUoY": 1462,
"##WTpGGJ": 1463,
"##KSUO": 1464,
"##ICB": 1465,
"##EvWqE": 1466,
"##aT": 193393,
"##KBv": 1468,
"##jmBpiZ": 1469,
"CRSb": 1470,
"FodqoK": 1471,
"##ka": 188485,
"FidoXz": 1473,
"VtkLv": 1474,
"##tX": 185696,
"aDk": 129619,
"##dV": 187650,
"##veROt": 1478,
"Hn": 198525,
"VK": 178885,
"##FUCHv": 1481,
"By": 194326,
"wpdeHd": 1483,
"VhDz": 1484,
"jZ": 192251,
"DDc": 1486,
"yruJta": 1487,
"gKzN": 1488,
"##Fyr": 1489,
"##ifo": 1490,
"jWBUI": 1491,
"nD": 155382,
"##JZNroM": 1494,
"##DGEYwM": 1495,
"##NYjmB": 1496,
"wHud": 1497,
"Rd": 194183,
"##agc": 1499,
"MEq": 1500,
"Uar": 1501,
"PdwN": 1502,
"##TOSMd": 1503,
"##XEel": 1504,
"##IORe": 1505,
"ZabJ": 1506,
"LylP": 1507,
"ydJKcP": 1508,
"jv": 196504,
"##VwwVwt": 1510,
"NmVCno": 1511,
"tOAKd": 1512,
"##Ly": 170041,
"rFx": 1514,
"Tps": 1515,
"dWFJBw": 1516,
"YIo": 144799,
"GEeofv": 1518,
"dZGPFC": 1519,
"##LcFArD": 1520,
"##Aoe": 1521,
"nya": 1522,
"mkgE": 1523,
"mOga": 1524,
"nosLoG": 1525,
"##fa": 102115,
"sLNA": 1527,
"##qLO": 1528,
"oMgmg": 1529,
"tE": 154020,
"##uyxy": 1531,
"LKSuZ": 1532,
"vBXMD": 1533,
"##tb": 152144,
"##bxZZ": 1535,
"dMB": 1536,
"gtMdM": 1537,
"##snMtDz": 1538,
"KTSC": 1539,
"##kHup": 1540,
"##BEuE": 1541,
"##wSoJX": 1542,
"##ruCIgp": 1543,
"lzn": 1544,
"Wgczn": 1545,
"##UYONWQ": 1546,
"lzq": 192081,
"qDrE": 1548,
"VFsDf": 1549,
"Ih": 109403,
"mYv": 1551,
"smZY": 1552,
"##iPTJW": 1553,
"##bMyxN": 1554,
"##GcGlAb": 1555,
"##XK": 171425,
"MFKuW": 1557,
"cuf": 1558,
"##dybTrq": 1559,
"##LZQR": 1560,
"ZRl": 24928,
"cc": 181764,
"##aGQoIi": 1563,
"##ZFJK": 1564,
"HZ": 120505,
"uo": 199518,
"myxd": 1567,
"PPq": 1568,
"##hxx": 1569,
"##Ldmg": 1570,
"UHLdt": 1571,
"##zrPhMh": 1572,
"##hndc": 1573,
"##PpHByl": 1574,
"jzwxKu": 1575,
"##NF": 162835,
"EPH": 1577,
"##hO": 185562,
"##YNMdNr": 1579,
"##CsE": 1580,
"##sGts": 1581,
"QX": 199460,
"##OSYY": 1583,
"##pBAT": 1584,
"hpgE": 1585,
"mv": 160139,
"BqVMoB": 1587,
"GQY": 1588,
"bhEYZ": 1589,
"##dr": 175476,
"##fcuJN": 1591,
"olpiM": 1592,
"CqdAqp": 1593,
"pw": 188374,
"##kfm": 1595,
"##GrZDo": 1596,
"JC": 186816,
"##dO": 192024,
"##InVHCT": 1599,
"bAP": 1600,
"##TMtBcL": 1601,
"##ISjH": 1602,
"mUhtxd": 1603,
"##xeslZi": 1604,
"NOUBt": 1605,
"meR": 1606,
"gIuiP": 1607,
"##tTnF": 1608,
"lglfm": 1609,
"KAkHDC": 1610,
"##CalC": 1611,
"##BecWA": 1612,
"iRx": 1613,
"EOT": 6688,
"##Smow": 1615,
"##ppQn": 1616,
"##gAN": 1617,
"LeUY": 1618,
"##rYkvc": 1619,
"##mUl": 1620,
"##vk": 184297,
"##vT": 135367,
"LbGKh": 1623,
"UOJxC": 1624,
"##QAuQr": 1625,
"##trFX": 1626,
"nrJ": 1627,
"pBie": 1628,
"##oSQF": 1629,
"Vzccn": 1630,
"FOBN": 1631,
"ORh": 1632,
"##EtQt": 1633,
"##gZg": 1634,
"##Fdb": 37906,
"ULI": 1636,
"bfUdvK": 1638,
"aW": 171394,
"##cq": 192165,
"tVvylS": 1641,
"sVRC": 1642,
"##Uh": 185235,
"##XVT": 1644,
"PH": 153654,
"kX": 184054,
"##UhLd": 1647,
"##ne": 181588,
"hrKy": 1649,
"oiuoji": 1650,
"tlnjc": 1651,
"##YFQ": 1652,
"##nhDGJT": 1653,
"Id": 192953,
"##vlk": 1655,
"JhDzdw": 1656,
"##lihnDG": 1657,
"dQNu": 1658,
"##ls": 146468,
"##pjjExw": 1660,
"Jkz": 1661,
"dNJkaQ": 1662,
"##cnDl": 1663,
"##rGr": 1664,
"gNrsoS": 1665,
"##hj": 191714,
"##GW": 190901,
"QvNXE": 1668,
"##AQmFa": 1669,
"oPcjp": 1670,
"##vKr": 60413,
"TVcZA": 1672,
"##sS": 170543,
"##QJGCVM": 1674,
"GVSkC": 1675,
"##KNt": 1676,
"GKy": 1677,
"ZdTi": 1678,
"pa": 180862,
"Qrqs": 1680,
"wSa": 1681,
"fZgk": 1682,
"tYAdq": 1683,
"kcH": 1685,
"kUW": 1686,
"##xgOlL": 1687,
"##ugM": 166216,
"fRSdSn": 1690,
"##XNCXv": 1691,
"KpeaNH": 1692,
"##rc": 158910,
"##MVK": 1694,
"##AUE": 1695,
"##JBUsJ": 1696,
"mB": 132777,
"##yd": 193630,
"QOpTOZ": 1699,
"SLK": 1701,
"zESouL": 1702,
"Zi": 139474,
"mN": 194060,
"TZ": 169759,
"##Wgkl": 1706,
"##CPl": 1707,
"##mrUBcQ": 1708,
"##pc": 184943,
"##mrdF": 1710,
"PKMHtJ": 1711,
"MYpC": 1712,
"##zD": 194175,
"##dCMFnV": 1714,
"##aKAo": 1715,
"XXZx": 1716,
"##kTrNUH": 1717,
"xc": 166539,
"RuiRmv": 1719,
"cnsm": 1720,
"##PYbFu": 1721,
"##JqdT": 1722,
"KwbyaO": 1723,
"##KIoLhu": 1724,
"jbqLU": 1725,
"UB": 199318,
"BmT": 1727,
"##AB": 195662,
"WHgdv": 1729,
"WVeFHP": 1730,
"##srmF": 1731,
"##hq": 152674,
"Fe": 178498,
"##uXSWL": 1734,
"##IutW": 1735,
"##iDdQWC": 1736,
"##OVg": 1738,
"##QaB": 1739,
"AHfT": 1740,
"##Fe": 188862,
"NJBVJ": 1742,
"##Cl": 138166,
"##AbOe": 1744,
"Sr": 194472,
"gBxqy": 1746,
"##cQaTEx": 1747,
"##QLM": 1748,
"zJgqYv": 1749,
"in": 176010,
"RrvwLc": 1751,
"sh": 193823,
"##gHy": 1753,
"##Wiuc": 1754,
"jHpBt": 1755,
"iOx": 1756,
"##Oj": 188880,
"wJmYqj": 1758,
"##jqHw": 1759,
"##ipgl": 1760,
"uXO": 1761,
"ulN": 1762,
"jVGw": 1763,
"##MmGAW": 1764,
"##yfnxVO": 1765,
"EUfva": 1766,
"vqrUVB": 1767,
"LVxZYn": 1768,
"##QE": 169978,
"##pPNCaU": 1770,
"##NnHJM": 1771,
"##msfzB": 1772,
"YjnV": 1773,
"##HicZ": 1774,
"##rleptS": 1775,
"##IhJp": 1776,
"XKy": 1777,
"vmtm": 1778,
"Gf": 140939,
"##bxFAL": 1780,
"lFLFGH": 1781,
"##XpFCA": 1782,
"##HFYs": 1783,
"hdF": 1784,
"utpO": 1785,
"##mmT": 1786,
"##rzP": 1787,
"##WKP": 105251,
"##zX": 157093,
"WM": 144619,
"##Elrwo": 1791,
"##dSd": 1792,
"##SY": 193257,
"##XoIl": 1794,
"dOK": 1795,
"##PCx": 1796,
"MQ": 188755,
"##zShJbR": 1798,
"##ClqF": 1799,
"vZ": 77655,
"cDu": 1801,
"fFfbr": 1802,
"##Nr": 181881,
"##rUBLSA": 1804,
"ota": 1805,
"##MVqoYI": 1806,
"mttU": 1807,
"uCms": 1808,
"##bnUUI": 1809,
"##ubnj": 1810,
"NXL": 1811,
"mpkGZ": 1812,
"vXHQt": 1813,
"##swz": 1814,
"##UElS": 1815,
"fL": 198996,
"##Zur": 1817,
"tFch": 1818,
"gvDR": 1819,
"##DjC": 149769,
"##bGvWLN": 1821,
"ocktvI": 1822,
"##GgOe": 1823,
"DE": 189154,
"##kbOad": 1825,
"KQE": 1826,
"##aHy": 1827,
"sq": 185600,
"BKROB": 1829,
"Yyt": 1830,
"eeAr": 1831,
"RUIZ": 1832,
"##WJfTFg": 1833,
"LRqJGG": 1834,
"##Fx": 133959,
"SExVXo": 1836,
"gM": 184160,
"##THm": 63399,
"mePV": 1839,
"##OiInm": 1840,
"luw": 154691,
"Oe": 179218,
"oJZPXp": 1843,
"En": 138502,
"##yoywxL": 1845,
"nsKTE": 1846,
"##GfoWnZ": 1847,
"nNsZy": 1848,
"##IBiGSu": 1849,
"fuJu": 1850,
"##VKhFL": 1851,
"Fjx": 1852,
"##TB": 189408,
"##ATVs": 1854,
"##AGJDj": 1855,
"##tPhBE": 1856,
"LbZ": 1857,
"aBLmk": 1858,
"##RWT": 1859,
"##tjA": 132810,
"zuwB": 1861,
"pKr": 1862,
"##IaYGT": 1863,
"##vGEhb": 1864,
"ZT": 198656,
"uVb": 1866,
"##NA": 160265,
"TNX": 1868,
"SbYhFy": 1869,
"##jDsCh": 1870,
"##SUo": 55798,
"Outa": 1872,
"hjoDZ": 1873,
"##qOhDH": 1874,
"##RqzMm": 1875,
"##Urfe": 1876,
"AF": 174058,
"bOiqeo": 1878,
"kOoXle": 1879,
"Nd": 179404,
"##lmn": 1881,
"##XTSjq": 1882,
"kRR": 57775,
"##Vhxx": 1884,
"AUOHdn": 1885,
"##Ilne": 1886,
"##QhCB": 1887,
"##Eo": 144990,
"##LwA": 1889,
"##JTau": 1890,
"##mMUUYD": 1891,
"##bHaE": 1892,
"##hvNBb": 1893,
"TxDRY": 1894,
"ohMVGg": 1895,
"VrLJYE": 1896,
"##HONHwP": 1897,
"AH": 181887,
"oiKUCy": 1899,
"##XgNJ": 1900,
"##HyXbt": 1901,
"mIOzBH": 1902,
"MRcvfL": 1903,
"##Hp": 198283,
"fiK": 30983,
"##pF": 195280,
"##Bvd": 1907,
"VWFs": 1908,
"##yzHc": 1909,
"##Ee": 195421,
"Dl": 172944,
"LXnkY": 1912,
"##wHA": 1913,
"taZqP": 1914,
"FJ": 195956,
"##efIMy": 1916,
"fbps": 1917,
"##VbqWqZ": 1919,
"##Tuxvt": 1920,
"vJtN": 1921,
"rNmpE": 1922,
"bXv": 1923,
"##xOLK": 1924,
"QOMw": 1925,
"mWMHs": 1926,
"##tMv": 1927,
"EA": 166186,
"oKLe": 1929,
"##mSt": 1930,
"AtwR": 1931,
"##GqGInu": 1932,
"OSyVkc": 1933,
"##Rl": 170175,
"nv": 196274,
"HLaF": 1937,
"##LMxnbC": 1938,
"uq": 154812,
"wDZ": 1940,
"wSw": 1941,
"Tq": 185296,
"##Nbno": 1943,
"oexiLs": 1944,
"##gKB": 1945,
"UyvNL": 1946,
"nOj": 1947,
"##hoJEi": 1948,
"##wMlOr": 1950,
"##ZHvr": 1951,
"WEN": 1952,
"Lnjoq": 1953,
"gprL": 1954,
"##km": 183437,
"##FsDIj": 1956,
"YDyjo": 1957,
"cMF": 1958,
"IIqf": 1959,
"Vn": 171740,
"##ZjTHJI": 1961,
"##UmFlnW": 1962,
"nNY": 1963,
"##tdx": 1964,
"##RS": 166341,
"##YS": 189017,
"##siVb": 1967,
"##bLudi": 1968,
"djGocK": 1969,
"##bjGFJ": 1970,
"WqnaIG": 1971,
"gX": 173396,
"dOoDtL": 1973,
"##QWHC": 1974,
"QBAo": 1975,
"IGf": 39667,
"Co": 186066,
"##HUJjO": 1978,
"##UJfBR": 1979,
"GHU": 1980,
"##Gq": 173144,
"CoUi": 1982,
"##TC": 87759,
"gjdj": 1984,
"YUB": 1985,
"Thk": 1986,
"CV": 196516,
"##GqUC": 1989,
"dqIc": 1990,
"##VYrh": 1991,
"##itktkN": 1992,
"CBnzxs": 1993,
"YXzTU": 1994,
"##cBbPr": 1995,
"fk": 182362,
"##vt": 199824,
"Frw": 1998,
"PXCLn": 1999,
"bJksNi": 2000,
"##UgGS": 2001,
"Rk": 186292,
"##He": 124706,
"##TPAQ": 2004,
"##sGD": 2005,
"eL": 139112,
"qyXD": 2007,
"##bmueM": 2008,
"##ZDtc": 2009,
"##Kvg": 2010,
"##KIV": 2011,
"iSK": 2012,
"MxFtt": 2013,
"eROM": 2014,
"BkvlzB": 2015,
"dy": 169994,
"##iIGmS": 2017,
"##JFXi": 2018,
"##Njdfhj": 2019,
"KxE": 2020,
"##HLI": 2021,
"##lTsas": 2022,
"##WAULWd": 2023,
"Eekb": 2024,
"##djra": 2025,
"DhtAqy": 2026,
"lc": 197679,
"vIdJs": 2028,
"JBzvVf": 2029,
"##zoC": 2030,
"Gh": 106181,
"IsBy": 2032,
"##PQU": 2033,
"XTVQaX": 2034,
"KoTYr": 2035,
"gqqf": 2036,
"Ndfoms": 2038,
"WKyHX": 2039,
"hQNuMc": 2040,
"##jlNyFD": 2041,
"Qrni": 2042,
"ZwNJvd": 2043,
"##SdR": 2044,
"FUT": 2045,
"rQNFW": 2046,
"du": 159761,
"##Gaow": 2048,
"##VfqkrC": 2049,
"Gcu": 168901,
"##OHd": 2051,
"##exT": 2052,
"djXqxH": 2053,
"jqi": 2054,
"##JD": 195605,
"##sqXNk": 2056,
"XvgNqL": 2057,
"##tp": 192268,
"##Tw": 179769,
"ws": 168779,
"##fA": 85632,
"rCeOW": 2062,
"hcpV": 2063,
"pJxxBg": 2064,
"nJ": 118981,
"dRTTXg": 2066,
"wCL": 2067,
"##hrfO": 2068,
"##cqZDAX": 2069,
"##ek": 180874,
"##oclDqj": 2071,
"##yvV": 2072,
"jQDo": 2073,
"okMXUY": 2074,
"##fpmQUK": 2075,
"ndkh": 2076,
"yQOt": 2077,
"##WRx": 2078,
"##qZMIWW": 2079,
"##PqPWf": 2080,
"##IOK": 2081,
"gjhB": 2082,
"iUtorz": 2083,
"##zI": 170972,
"QCVx": 2085,
"sujbF": 2086,
"Btt": 2087,
"##mWxl": 2088,
"OmhGLd": 2089,
"Hk": 198074,
"hwh": 2091,
"##lAd": 2092,
"sVFap": 2093,
"##ekYhqB": 2094,
"##ihQbc": 2095,
"##aBS": 2096,
"##yR": 186205,
"lWayQ": 2098,
"##qMi": 2099,
"##DoL": 2100,
"jwJ": 2101,
"##tV": 122330,
"BWAnva": 2103,
"##mDhBX": 2104,
"##vIaoT": 2105,
"ZSBuq": 2106,
"##tU": 164934,
"##RabAau": 2108,
"NdMiOQ": 2109,
"##EAXtRj": 2110,
"Urs": 2111,
"##Granlw": 2112,
"qv": 181121,
"##KiI": 2114,
"##MoU": 2115,
"##AyZRw": 2116,
"JM": 149923,
"UjZXuv": 2118,
"BiJ": 2119,
"iu": 189475,
"##EHgNA": 2121,
"xNeAz": 2122,
"aqoOJ": 2123,
"##krLCi": 2124,
"fJX": 2125,
"tS": 189950,
"KO": 176933,
"AW": 195462,
"##pdciP": 2129,
"##XV": 186446,
"##OTJ": 97599,
"FIjEY": 2132,
"##jJNK": 2133,
"##oPJbu": 2134,
"iHcdqL": 2135,
"Jt": 193432,
"##LiJJMi": 2137,
"##tc": 188956,
"gC": 198764,
"##PP": 119857,
"##KExj": 2141,
"iI": 160169,
"WRgX": 2143,
"##gQbYp": 2144,
"##dyGH": 2145,
"##lfP": 2146,
"##nZgF": 2147,
"oykTm": 2148,
"##FPG": 96949,
"ZY": 188637,
"##ha": 171864,
"##UjzZ": 2152,
"##to": 195352,
"jPW": 2154,
"vrUgXL": 2155,
"WhUB": 2156,
"TvALv": 2157,
"##Pmz": 2158,
"hdCD": 2159,
"##dsO": 2160,
"Vp": 179183,
"##HYFWLV": 2162,
"awD": 2163,
"##iD": 142517,
"lIHBUu": 2165,
"mpO": 2166,
"##gIHRET": 2167,
"Yrgwkp": 2168,
"gmQ": 2169,
"vNMXg": 2170,
"##rCEF": 2171,
"##Qvujxw": 2172,
"##ABO": 137298,
"##lUJ": 2174,
"##dHJFxf": 2175,
"##qdIA": 2176,
"zePkD": 2177,
"##sxToRk": 2178,
"SeU": 2179,
"Va": 163667,
"##FQ": 139337,
"av": 187973,
"FvgPT": 2183,
"sE": 133558,
"tGXz": 2185,
"gY": 191207,
"##oKDZwP": 2187,
"kyzJ": 2188,
"SD": 183583,
"lzAVt": 2190,
"##ZBG": 2191,
"##ZMUD": 2192,
"##tIPEtx": 2193,
"JcRx": 2194,
"##Jf": 178062,
"kcFI": 2196,
"##QIQPc": 2197,
"Si": 146183,
"##nH": 164335,
"##GD": 187365,
"LKo": 2201,
"dv": 166159,
"##Hr": 185284,
"##ZpTOBw": 2204,
"BPOfl": 2205,
"##zwZo": 2206,
"##jTnVo": 2207,
"eX": 183875,
"##ZVS": 2209,
"##tmv": 180290,
"##BmOXdx": 2211,
"##Kb": 188990,
"##cWm": 2213,
"vb": 143589,
"Ths": 2215,
"##zVABe": 2216,
"##vPuGrL": 2217,
"Wb": 192568,
"##pqnC": 2219,
"##nkSlo": 2220,
"aTHEu": 2221,
"rRTx": 2222,
"dLTgei": 2223,
"##ghqQJP": 2224,
"##uonvWA": 2225,
"##lKkWLT": 2226,
"##wGrGqz": 2227,
"##Jb": 196521,
"vx": 198553,
"##ZpCMTl": 2230,
"atD": 2231,
"##GSeroY": 2232,
"##YphVWG": 2233,
"##BEl": 2234,
"##ggc": 2235,
"iR": 193307,
"YU": 197748,
"pvpZ": 2238,
"##icN": 2239,
"##MJHGz": 2240,
"##gD": 173533,
"Zyr": 2242,
"TCcW": 2243,
"sLNyu": 2244,
"##jn": 118745,
"##qMaDs": 2246,
"arR": 2247,
"hOPKTe": 2248,
"OoePVl": 2249,
"gpk": 2250,
"mCV": 2251,
"##vHYF": 2252,
"WP": 194071,
"lBgM": 2254,
"mS": 178430,
"Yeg": 2256,
"Wa": 193775,
"GEw": 2258,
"oHSiDG": 2259,
"LAyQ": 2260,
"##RPnejH": 2261,
"##PW": 83336,
"Mz": 181948,
"TnZlng": 2264,
"##UZR": 2265,
"##BA": 137669,
"Bip": 2267,
"##gjc": 47834,
"NOHnWk": 2269,
"##kr": 190262,
"##TF": 180085,
"VR": 180809,
"LOc": 2273,
"ajT": 2274,
"##iuA": 2275,
"##Swu": 2276,
"##peUHMJ": 2277,
"rjUcF": 2278,
"eYY": 2279,
"VIHN": 2280,
"##hymAiF": 2281,
"uyCaax": 2282,
"zgWc": 2283,
"Ir": 188426,
"eAl": 2285,
"##EDNOeW": 2286,
"##cuHHkQ": 2287,
"##SF": 190166,
"##sZcTsq": 2289,
"bBVlJM": 2290,
"##qTMs": 2291,
"McGF": 2292,
"WYk": 2293,
"##NMsbp": 2294,
"UyZq": 2295,
"DacxfE": 2296,
"##gEkG": 2297,
"##rb": 199280,
"##mW": 149171,
"VDBg": 2300,
"##uQgS": 2301,
"##Vx": 188688,
"BjA": 2303,
"LLj": 43992,
"##RmaIBH": 2305,
"uyK": 2306,
"##XpEzL": 2307,
"##IZZH": 2308,
"uBLiu": 2309,
"NxbMA": 2310,
"##YF": 150291,
"btEdWh": 2312,
"Iufbin": 2313,
"##snVQK": 2314,
"ZgnziY": 2315,
"SYissV": 2316,
"##JZHpE": 2317,
"##WYl": 2318,
"##UUMMa": 2319,
"##Lf": 166094,
"coUCEL": 2321,
"##dq": 199656,
"##NTQ": 2323,
"##mQABXx": 2324,
"##vKvHw": 2325,
"##ZoJO": 2326,
"##wMifb": 2327,
"diP": 2328,
"gywz": 2329,
"JLhunG": 2330,
"##YlPsVJ": 2331,
"##Po": 185125,
"##JEcD": 2333,
"cCzJlL": 2334,
"duAqV": 2335,
"##vGAyMk": 2336,
"##dZ": 176362,
"uDKgmg": 2338,
"##ED": 106331,
"ieSpHO": 2340,
"##CLFREa": 2341,
"##gpEUNb": 2342,
"##Kxwfa": 2343,
"##SDsn": 2344,
"##fGGrvg": 2345,
"##VPhrqT": 2346,
"uOI": 2347,
"MlH": 2348,
"##XpnH": 2349,
"##HQv": 42816,
"EvriP": 2351,
"##Bz": 196011,
"nQoAc": 2353,
"##dWNRcq": 2354,
"##eUdg": 2355,
"MVzNju": 2356,
"##GU": 195026,
"yq": 181679,
"DyDW": 2359,
"##WMgwrb": 2360,
"##nz": 173494,
"Smakb": 2362,
"Bcu": 2363,
"##YWvs": 2364,
"##yEGccP": 2365,
"##HbpHqn": 2366,
"##bhov": 2367,
"##lYlE": 2368,
"axjLF": 2369,
"khPYV": 2370,
"##uFeK": 2371,
"GRUpAS": 2372,
"##Vb": 194172,
"Mlc": 2374,
"##bOkNwl": 2375,
"##qLZtR": 2376,
"##iI": 148474,
"jy": 178083,
"DLIaoy": 2379,
"XU": 98556,
"##jffF": 2381,
"hq": 183148,
"bQV": 2383,
"##evMv": 2384,
"##QTBwu": 2385,
"LSVQl": 2386,
"##HuAha": 2387,
"##ZxRoNF": 2388,
"TGHm": 2389,
"gasJ": 2390,
"##pyCh": 2391,
"nA": 175300,
"##rPkzS": 2393,
"##LH": 92574,
"Rpe": 80940,
"Wx": 188675,
"jtpa": 2397,
"##Pys": 2398,
"##DhtwyC": 2399,
"##kwXD": 2400,
"##zHJKWM": 2401,
"##aiXj": 2402,
"pNZID": 2403,
"##iP": 184044,
"ZHQ": 2405,
"uoUJMz": 2406,
"##bTP": 2407,
"##qU": 179251,
"##BIkAXl": 2409,
"##itZAu": 2410,
"##Svi": 190168,
"##VOkot": 2412,
"##GYAhUI": 2413,
"VyI": 2414,
"BaSK": 2415,
"xFn": 2416,
"eJGo": 2417,
"wCFLP": 2418,
"##YOoIW": 2419,
"ONI": 2420,
"##Dc": 155461,
"##xkhN": 2422,
"ni": 185095,
"St": 159526,
"##PFMug": 2425,
"SLMCj": 2426,
"MEVHo": 2427,
"Lo": 184255,
"##xggqI": 2429,
"WQZonq": 2430,
"##ZB": 192741,
"RgpKZ": 2432,
"##fCELw": 2433,
"##DMXAIm": 2434,
"oOo": 2435,
"##kENnTV": 2436,
"##ZPIG": 2437,
"lJkU": 2438,
"MP": 95967,
"##vTvC": 2440,
"tUDU": 2441,
"zu": 183241,
"eUjeWm": 2444,
"scB": 2445,
"Yte": 2446,
"##rwy": 194601,
"##KWxMfT": 2449,
"lEwtpO": 2450,
"##PWVWm": 2451,
"##kZRd": 2452,
"##bBtK": 2453,
"uR": 52000,
"IEeQEg": 2455,
"rFgKB": 2456,
"##DSEl": 2457,
"eFGor": 2458,
"##zQe": 2459,
"yTO": 63414,
"##swQWjP": 2461,
"Pxm": 2462,
"##HJzVQI": 2463,
"##yD": 199834,
"##QpUl": 2465,
"FOfXJ": 2466,
"jXRgA": 2467,
"##qf": 115585,
"##uJmXwe": 2469,
"spXzcq": 2470,
"##ZeMc": 2471,
"##ArcBV": 2472,
"PjXn": 2473,
"XZnQ": 2474,
"eBjIwH": 2475,
"##wpOjTw": 2476,
"Ufwz": 2477,
"ozzvWk": 2478,
"##Kak": 2479,
"##cy": 179623,
"fyG": 2481,
"##ZJsYUZ": 2482,
"yM": 144018,
"##Hxq": 2484,
"##nFse": 2485,
"##ezFu": 2486,
"IO": 183182,
"##CefaWN": 2488,
"pV": 188545,
"PURSdR": 2490,
"Js": 198916,
"##eDV": 2492,
"jJ": 173198,
"##DY": 194725,
"AfJnIO": 2495,
"##cfw": 2496,
"##EdGXY": 2497,
"guzdc": 2498,
"UGa": 2500,
"##yeWwD": 2501,
"dOfJYr": 2502,
"rWIKlC": 2503,
"##KYpn": 2505,
"CUWp": 2506,
"##rtK": 105856,
"qfAIjp": 2508,
"naVEA": 2509,
"##Bgti": 2510,
"YYNRZU": 2511,
"VYlZhm": 2512,
"CI": 125227,
"BWtUI": 2514,
"alV": 2515,
"wNwXz": 2516,
"##seSDiL": 2517,
"uVihn": 2518,
"LJas": 2519,
"Laqu": 2520,
"fgtgv": 2521,
"##Vi": 162546,
"##uJNJN": 2523,
"vkI": 2524,
"##eb": 116596,
"##TQ": 198443,
"gSMV": 2528,
"##Xgp": 158967,
"##vTGEQ": 2530,
"##ijmw": 2531,
"cKm": 2532,
"pnMzN": 2533,
"##UitG": 2534,
"##eQngwV": 2535,
"##CoPH": 2536,
"##UYGVl": 2537,
"##bOkNu": 2538,
"##nwf": 2539,
"##Tt": 166002,
"##xByiP": 2541,
"##CBRlu": 2542,
"##ZHlqGh": 2543,
"##wi": 108813,
"QLLeb": 2545,
"RdVP": 2546,
"NX": 184445,
"##sXR": 2548,
"##AG": 166781,
"##zjEzFd": 2550,
"hDq": 109442,
"##Xk": 2792,
"##mPY": 2553,
"##ZE": 124777,
"TWTbuX": 2555,
"elCUl": 2556,
"##HEtX": 2557,
"##zSkIj": 2558,
"SIrBKu": 2559,
"AqcSZk": 2560,
"##zvu": 2561,
"GO": 152839,
"##QHMg": 2563,
"##Poyfr": 2564,
"##CPgf": 2565,
"MsyV": 2566,
"##eaDW": 2567,
"##LBmSqA": 2568,
"##hoG": 2569,
"pK": 83087,
"##SfdcP": 2571,
"vVPd": 2572,
"HYWzo": 2573,
"##Bjpw": 2574,
"##mXid": 2575,
"fYZix": 2576,
"##BCE": 2577,
"##uJpC": 2578,
"##EhWv": 2579,
"kVGEYs": 2580,
"##HRHaY": 2581,
"##diG": 2582,
"Zai": 2583,
"##gXnzMD": 2584,
"##PGOW": 2585,
"qrbwtg": 2586,
"Bgj": 2587,
"##JkGKj": 2588,
"##UmtVx": 2589,
"##oKgHS": 2590,
"mFhZb": 2591,
"ZHFySr": 2592,
"##rLHPp": 2593,
"mlpTg": 2594,
"##bAU": 2595,
"##RUI": 2596,
"##asO": 2597,
"##lfwzYI": 2598,
"AwFcG": 2599,
"##wiyU": 2600,
"##WJzI": 2601,
"##qukB": 2602,
"zAaoI": 2603,
"bMLbig": 2604,
"fcRw": 2605,
"##CKJbY": 2606,
"##Dknsfu": 2607,
"##IusGn": 2608,
"##Aka": 2609,
"##cnvY": 2610,
"nW": 167264,
"##DqMO": 2612,
"##SDRp": 2613,
"##aH": 180554,
"LBdOHh": 2615,
"##FNs": 2616,
"##voaIO": 2617,
"##btkO": 2618,
"UxTZ": 2619,
"upkR": 2620,
"##qSOjmq": 2621,
"##OAXUkT": 2622,
"VpMcf": 2623,
"iOGc": 2624,
"##Id": 188797,
"##fJk": 2626,
"TY": 156493,
"CTCK": 2628,
"##lf": 190745,
"kjyBaR": 2630,
"##VQavx": 2631,
"eAtM": 2632,
"##TxnjLL": 2633,
"##DEC": 2634,
"wMuq": 2636,
"##EtDth": 2637,
"vUqG": 2638,
"sMZbd": 2639,
"xcqT": 2640,
"xLGKk": 2641,
"JqmrcU": 2642,
"##FCARwB": 2643,
"##LNPy": 2644,
"##jHOs": 2646,
"##xZn": 2647,
"vvPEQ": 2648,
"CcB": 2649,
"zMYjmy": 2650,
"gHsIu": 2651,
"CJujt": 2652,
"mtddzv": 2653,
"GVd": 2654,
"##XwdOC": 2655,
"##PtjWH": 2656,
"bVvZLY": 2657,
"pn": 188778,
"BFn": 135211,
"##zzWBSv": 2660,
"##ujgP": 2661,
"##HWP": 123495,
"fjM": 2663,
"##rByXge": 2664,
"Kj": 184755,
"hU": 174584,
"FZrq": 2667,
"##ty": 191223,
"##Anb": 45289,
"##KudWu": 2670,
"##wFzlfU": 2671,
"gpPO": 2672,
"##RpxwVK": 2673,
"uXQPL": 2675,
"##Gh": 181181,
"AZDwk": 2677,
"ZeQW": 2678,
"mR": 183240,
"##vIp": 2680,
"##Sjpz": 2681,
"##YUI": 2682,
"##kyCI": 2683,
"##vIHWyJ": 2684,
"ri": 177554,
"ZnbW": 2686,
"##gbylX": 2687,
"##WwBcU": 2688,
"##omHQW": 2689,
"##IVd": 2690,
"OFl": 2691,
"##Ng": 154248,
"kniamU": 2693,
"##mRmp": 2694,
"CuqlRM": 2695,
"##noozu": 2696,
"uT": 176612,
"##eWa": 2698,
"FCmNDN": 2699,
"xoMH": 2700,
"qUMI": 2701,
"baPiqB": 2702,
"##mUxl": 2703,
"##zgCE": 2704,
"##MqQmM": 2705,
"##ykRMmU": 2706,
"##qrVb": 2707,
"FU": 196497,
"mWDdi": 2709,
"##RZa": 2710,
"Bjw": 2711,
"##eY": 135631,
"IMp": 2713,
"khoDX": 2714,
"iF": 190485,
"HxZHX": 2716,
"DQtbVZ": 2717,
"##LfHmi": 2718,
"##hCv": 2719,
"##NVd": 2721,
"##hBRoou": 2722,
"##ZFCOOg": 2723,
"hAzvN": 2724,
"oDqrRP": 2725,
"##FxMaYV": 2726,
"##EVufc": 2727,
"Ueu": 2728,
"aMZkuJ": 2729,
"xo": 184370,
"dGVtEo": 2731,
"##LBy": 2732,
"Ra": 161051,
"AxX": 2734,
"##TD": 141430,
"yKesPz": 2736,
"JcUOU": 2737,
"pVEMf": 2738,
"##dK": 179217,
"fKmxDH": 2740,
"iElMM": 2741,
"NxgSy": 2742,
"CBGqX": 2743,
"xJFUiB": 2744,
"VprbU": 2745,
"##yeuxg": 2746,
"##mZAyt": 2747,
"##zw": 163578,
"rWQfy": 2749,
"dA": 124596,
"QHIOM": 2751,
"qJDPPm": 2752,
"##QEvpn": 2753,
"CTeJ": 2754,
"QKX": 2755,
"##qSQnPd": 2756,
"##LMO": 2757,
"##GeDMU": 2758,
"Cb": 194768,
"RDXHio": 2760,
"Om": 174283,
"NOved": 2762,
"IIKRoz": 2763,
"zGEb": 2764,
"##ITra": 2765,
"##EPHJdy": 2766,
"##Ia": 190839,
"oAqS": 2768,
"##LkYCz": 2769,
"GPg": 2770,
"EE": 163602,
"RS": 174861,
"Qf": 163933,
"##cw": 175130,
"##cdMjH": 2775,
"##RA": 158322,
"SJJX": 2777,
"##loizSx": 2778,
"##TNK": 2779,
"EexAW": 2780,
"EbV": 2781,
"Mm": 169688,
"Zhvv": 2783,
"##vPx": 2784,
"vJZX": 2785,
"XwUllO": 2786,
"jfjkBZ": 2787,
"##VI": 162600,
"Ckn": 2789,
"##FBQnb": 2790,
"HdD": 2791,
"EWXqr": 2793,
"##zk": 192563,
"##frFwaN": 2795,
"##BC": 168694,
"LR": 158582,
"OlrV": 2798,
"kXp": 2799,
"##yRjSY": 2800,
"sWTI": 2801,
"whCc": 2802,
"##rLtaPz": 2803,
"##XB": 185768,
"##qFGDRl": 2805,
"tWIbj": 2806,
"LJgr": 2807,
"##smGIu": 2808,
"Yk": 195932,
"##kqtqJA": 2810,
"##tUT": 154068,
"ozTt": 2812,
"whah": 2813,
"##BHhF": 2814,
"GKfngb": 2816,
"SfpDC": 2817,
"##YJNCK": 2819,
"##MNnoNI": 2820,
"SVFdH": 2821,
"##yUCfkM": 2822,
"##vtT": 2823,
"##BtSz": 2824,
"##ehhrQK": 2825,
"cl": 149232,
"##WwCOE": 2827,
"##ZjIqOV": 2828,
"AVnR": 2829,
"BgE": 2830,
"##KmQGi": 2831,
"haCN": 2832,
"dOEJv": 2833,
"##vvkq": 2834,
"##jqNC": 2835,
"QbueDm": 2836,
"NhhEQ": 2837,
"GOzvU": 2838,
"##JFrtg": 2839,
"NDK": 2840,
"##WhGL": 2841,
"##GtN": 2842,
"##BSBRR": 2843,
"oFLC": 2844,
"fSD": 2845,
"YuZ": 182996,
"##KnkZ": 2847,
"Oysb": 2848,
"LUzW": 2849,
"##ZN": 183615,
"xft": 2851,
"TDxiw": 2852,
"##RZg": 2853,
"xoi": 2854,
"qD": 199815,
"##aQLYNT": 2856,
"ca": 115020,
"##gwCN": 2858,
"Hbh": 2860,
"qUyYmv": 2861,
"GrcBN": 2862,
"pIBYQ": 2863,
"##VIUDE": 2864,
"##NfENg": 2865,
"##ddAY": 2866,
"##DhsO": 2867,
"wmkl": 2868,
"EHM": 2881,
"Pt": 178126,
"##Zvf": 2871,
"##vA": 152283,
"##HVGMPT": 2873,
"vu": 178845,
"WUvEYQ": 2875,
"##KzAf": 2876,
"yH": 178363,
"RI": 132472,
"ocsNvc": 2879,
"Piihy": 2880,
"##nTGd": 2882,
"AG": 197182,
"##rTG": 2884,
"zyllcn": 2885,
"JzKuDB": 2886,
"nnd": 2887,
"iSFNCd": 2888,
"ir": 117138,
"##vDdu": 2890,
"##jWwIS": 2891,
"##ATMz": 2892,
"##BXoFT": 2893,
"qwat": 2894,
"##Zjw": 2895,
"ZnsTrF": 2896,
"##ibXU": 2897,
"##frB": 2898,
"AS": 166809,
"aNARQQ": 2900,
"bfwnl": 2901,
"dofQ": 2902,
"##QSzjT": 2903,
"UvEMpO": 2904,
"##oeYRv": 2905,
"##ytf": 2906,
"##pH": 195021,
"ieRKVg": 2908,
"HLBBv": 2909,
"##OjSM": 2910,
"aslj": 2911,
"##TdeWyw": 2912,
"BXQh": 2913,
"qu": 188223,
"nMSBT": 2915,
"HIIsh": 2916,
"##AUja": 2917,
"bzQ": 2918,
"##uotWf": 2919,
"##WqLk": 2920,
"##Ukarhx": 2921,
"qnc": 2922,
"VwY": 2923,
"##Zepvvn": 2924,
"ownH": 2925,
"##IJ": 154078,
"eaQIP": 2927,
"##uFbJQ": 2928,
"##TDBL": 2929,
"##CXE": 2930,
"##PQBjnk": 2931,
"##ZbY": 2932,
"rU": 158671,
"##iX": 149093,
"HG": 156702,
"##At": 171273,
"lRU": 2937,
"##yChZnP": 2938,
"KTIVlU": 2939,
"##WHWfi": 2940,
"##GWoYM": 2941,
"##RBNs": 2942,
"##XhGp": 2943,
"Xpcqp": 2944,
"##Xonj": 2945,
"##JUMYl": 2947,
"oaBNL": 2948,
"##xWT": 2949,
"##Ldo": 2950,
"gNKGag": 2951,
"vS": 166426,
"##rzQPuT": 2953,
"elMH": 2954,
"rEI": 2956,
"##KSAYkk": 2957,
"zsmRyl": 2958,
"##ntStM": 2959,
"BxxOa": 2960,
"##NgdM": 2961,
"RCSc": 2962,
"wj": 195896,
"Dy": 168323,
"HcAamE": 2965,
"##JJGw": 2966,
"##enI": 2967,
"njQHx": 2968,
"##QR": 150428,
"##vICU": 2970,
"##vqzVUt": 2971,
"##oq": 196453,
"CiMqA": 2973,
"##TZaEY": 2974,
"##sk": 161342,
"##zodz": 2976,
"##Lnid": 2977,
"##xuLQ": 2978,
"sEJ": 2979,
"##GVnmOH": 2980,
"sYD": 2981,
"khBFl": 2982,
"oWg": 180266,
"##JmhDlU": 2984,
"##BD": 173873,
"FpFDn": 2986,
"pVX": 2987,
"##FB": 177663,
"##HDjXM": 2989,
"##gQjajz": 2990,
"##zS": 191434,
"##GwyHh": 2992,
"##sYoKyB": 2993,
"dhmjWg": 2994,
"srZ": 2995,
"DtZYM": 2996,
"scNU": 2997,
"kec": 2998,
"##bUSE": 2999,
"gTdBAJ": 3000,
"Ckbfhp": 3001,
"##EgpD": 3002,
"##PglmU": 3003,
"##xdOF": 3004,
"##dsNAfW": 3005,
"Cadv": 3006,
"##krsZEl": 3007,
"##WBwSN": 3008,
"nGO": 3009,
"DCVOJR": 3010,
"##leajcf": 3011,
"bkNf": 3012,
"##ridX": 3013,
"Jyp": 3014,
"BTnQ": 3015,
"##jXwl": 3016,
"wZaCD": 3017,
"XSWh": 3018,
"##errYS": 3019,
"Dumw": 3020,
"##bSBRH": 3021,
"Isjh": 3022,
"##nylfq": 3023,
"##kyGlar": 3024,
"##hbtVc": 3025,
"ZU": 170294,
"sfTxic": 3027,
"##VlZyk": 3028,
"##MGhR": 3029,
"##CzMQI": 3030,
"##cMA": 3031,
"CKWuE": 3032,
"iiJY": 3033,
"##Ys": 196278,
"##jiDA": 3035,
"##wJh": 3036,
"##xf": 193541,
"##QSaK": 3038,
"olGEC": 3039,
"XtdQOC": 3040,
"##Egg": 3041,
"GKJsVM": 3042,
"WNpY": 3043,
"##poE": 3044,
"##PraVoG": 3045,
"##zorAnC": 3046,
"Csdqp": 3047,
"WFUVv": 3048,
"OQG": 3049,
"##bIXeFr": 3050,
"##nDXJ": 3051,
"pE": 189349,
"hET": 3053,
"##Yeb": 3054,
"##FJW": 65606,
"##hzbiI": 3056,
"##uy": 161756,
"##dA": 142923,
"xL": 194602,
"##su": 187353,
"##iKd": 3061,
"##EUO": 3062,
"##EmtlL": 3064,
"##dkU": 59786,
"##JWY": 3066,
"JybVN": 3067,
"##xyi": 3068,
"Ty": 182183,
"##pTMRoR": 3070,
"bBgf": 3071,
"mNADR": 3072,
"##Hxj": 186376,
"##Dt": 189964,
"##ZimJmP": 3075,
"GpmfvK": 3076,
"##TzB": 168443,
"##PBWjQb": 3078,
"##gfZHbZ": 3079,
"##shIKF": 3080,
"##HMw": 162196,
"##lshjpR": 3082,
"##AEnW": 3083,
"##RwHqG": 3084,
"##kgp": 3085,
"XG": 186693,
"##TMxrEU": 3087,
"##qDwMR": 3088,
"Px": 145114,
"zob": 3090,
"##eT": 195667,
"JZX": 3092,
"##qJy": 3093,
"pqXB": 3094,
"OL": 86645,
"##ObmQag": 3096,
"HP": 194812,
"SxRSb": 3098,
"rk": 168703,
"##Nc": 167888,
"KH": 194680,
"##ouq": 53720,
"##QyHS": 3104,
"##qgsoYe": 3105,
"##KkNE": 3106,
"GCNj": 3107,
"ENgPh": 3108,
"AQv": 3109,
"##veDxCJ": 3110,
"YQ": 149230,
"OAY": 3112,
"qJ": 164635,
"gJkV": 3115,
"lUlXXh": 3116,
"fT": 171694,
"IGbsni": 3118,
"YRAr": 3119,
"##xoFhkY": 3120,
"WTCBlv": 3121,
"dfg": 3122,
"KTbf": 3123,
"bYs": 3124,
"##oT": 139892,
"##XKuEug": 3126,
"##GmDYi": 3127,
"##hDF": 3128,
"RXWzvH": 3129,
"hDvCk": 3130,
"wu": 184758,
"jfNww": 3132,
"##Mg": 162993,
"##mFd": 3134,
"BVQA": 3135,
"##nnqRD": 3136,
"##LGCDJ": 3137,
"iRfGm": 3138,
"joD": 3139,
"nTas": 3140,
"##uCS": 3141,
"##SNgwo": 3142,
"URm": 3143,
"##VXuzAS": 3145,
"##lv": 194861,
"##wsrZZc": 3147,
"##gmCom": 3148,
"##GI": 164359,
"sd": 198263,
"gSRfZ": 3151,
"wnU": 3152,
"##YgVKjV": 3153,
"##UvNb": 3154,
"yONN": 3155,
"Ubaw": 3156,
"##eEPeB": 3157,
"LdnBY": 3158,
"##hdln": 3159,
"##nBfCYL": 3160,
"##yW": 172569,
"Bi": 187131,
"EY": 193876,
"orR": 3164,
"##bjen": 3165,
"##NLh": 3166,
"uIRp": 3167,
"VkxP": 3168,
"zwbuJn": 3170,
"##Qg": 129096,
"BePZ": 3172,
"##Wfl": 3173,
"##QlHhG": 3174,
"yIMV": 3175,
"##Mr": 76929,
"##ar": 191387,
"##tegeJ": 3180,
"Gay": 150614,
"##CVg": 3182,
"tMe": 3183,
"##nHVf": 3184,
"##mQp": 3185,
"##yof": 3186,
"ohWA": 3187,
"tU": 171978,
"##gEW": 3189,
"Qmjiwf": 3190,
"GyCZ": 3191,
"##khdct": 3192,
"krn": 3193,
"##vDDQaV": 3194,
"##gaYd": 3195,
"##ID": 173055,
"MBnK": 3197,
"##ayHkB": 3198,
"##Vr": 98086,
"##jzhh": 3200,
"PKhcfa": 3201,
"ZPNxBN": 3202,
"##tSj": 3203,
"##dOtn": 3204,
"##ku": 162124,
"gd": 196839,
"tYRjr": 3207,
"##ChqQ": 3208,
"##Ipn": 3209,
"znVCI": 3210,
"##OGbQDJ": 3211,
"##uwPnX": 3212,
"##OVeK": 3214,
"##jzO": 140509,
"MmgH": 3216,
"##IwSTD": 3217,
"GW": 187471,
"WjC": 3219,
"qrOBEL": 3220,
"##sx": 104589,
"zEUs": 3222,
"##ho": 166154,
"##OYxyX": 3224,
"Jnhot": 3225,
"##zSdup": 3226,
"##EJNQ": 3227,
"##sGKxno": 3228,
"##xEf": 3229,
"usNAsN": 3230,
"oEwU": 3231,
"##Qof": 3232,
"##coQgM": 3233,
"nZMOC": 3234,
"##wTdo": 3235,
"##xhY": 3236,
"##yWGYjd": 3237,
"##gU": 186760,
"##JifBkk": 3239,
"JG": 181856,
"tiKyft": 3242,
"AdC": 3243,
"##bok": 3244,
"##pZTqp": 3245,
"##qxG": 3246,
"##KAgwKE": 3247,
"KAxl": 3248,
"##NSdo": 3249,
"CbSkT": 3250,
"##qpTr": 3251,
"Xtv": 3252,
"tLI": 3253,
"##ly": 189387,
"zvO": 3255,
"##yJRE": 3256,
"##hMI": 96255,
"jG": 195494,
"Cg": 196412,
"##ujY": 3260,
"##kwot": 3261,
"ILgk": 3262,
"geVjb": 3263,
"XDV": 3264,
"##MNkOoF": 3266,
"##BBx": 109585,
"JmyC": 3268,
"##qIA": 3269,
"##GtzoE": 3270,
"edVzG": 3271,
"##OpvTz": 3272,
"Pch": 3273,
"jHe": 3274,
"##GBx": 3275,
"##fm": 167222,
"##GXJ": 3277,
"aRmCb": 3278,
"##UmCjt": 3279,
"##PZyXf": 3280,
"NGCII": 3281,
"PsShB": 3282,
"zSI": 3283,
"##SkmJ": 3284,
"YzNot": 3285,
"##ZfB": 3286,
"##yTPh": 3287,
"SFA": 3288,
"##WG": 193574,
"##ovAm": 3290,
"##KBLtE": 3291,
"Sz": 174336,
"NrdCO": 3293,
"XavJB": 3294,
"ukS": 3295,
"##mp": 166806,
"##mgGpvG": 3297,
"##vaE": 3298,
"##gBM": 3299,
"##WyQck": 3301,
"ZnfuW": 3302,
"##bRgBXq": 3303,
"##wJvEJZ": 3304,
"##viPNA": 3305,
"##wqiaex": 3306,
"##dWdPZt": 3307,
"##cswA": 3308,
"AhVMVj": 3309,
"##UhPXnn": 3310,
"RvGoRh": 3311,
"oGYF": 3312,
"cJvmX": 3313,
"##NLXhSH": 3314,
"irj": 3315,
"##Zfn": 65749,
"EwHfz": 3317,
"NetJVZ": 3318,
"JXDZDy": 3319,
"mMZWkJ": 3320,
"##jurK": 3321,
"ZCTn": 3322,
"lPBEuQ": 3323,
"##fGYiuT": 3324,
"ukA": 3325,
"RMPY": 3327,
"##wcFJ": 3328,
"bZz": 3329,
"CzgQ": 3330,
"##KZv": 3331,
"Vl": 179832,
"##pAjt": 3333,
"##tkhRTt": 3334,
"sMRJ": 3335,
"pYm": 3336,
"##oIWMl": 3337,
"##zKsQ": 3338,
"##SrPmT": 3339,
"##LHfzC": 3340,
"rrF": 3341,
"pZjV": 3342,
"XqK": 3343,
"##TP": 200000,
"##hTdP": 3345,
"##RlO": 3346,
"##pCF": 100866,
"##hUi": 3348,
"gOfLl": 3349,
"tz": 115033,
"##sGS": 3352,
"Gal": 3353,
"##tt": 190055,
"YacdiG": 3355,
"##KBi": 3356,
"##iRZ": 3358,
"##ptTfkp": 3359,
"qIfg": 3360,
"sKtRGc": 3361,
"adjj": 3362,
"##hkaIwV": 3363,
"RkEJ": 3364,
"##eX": 169306,
"##shN": 197599,
"##tJ": 125041,
"Df": 175497,
"szX": 3369,
"vkBxX": 3370,
"irhO": 3371,
"We": 199490,
"FasLa": 3373,
"##Scx": 3374,
"##rViJr": 3375,
"plT": 3376,
"##qiz": 3377,
"##BvewEf": 3378,
"qTRt": 138717,
"##rh": 135353,
"##qBdD": 3381,
"##lVjm": 3382,
"uivz": 3383,
"UXHA": 3384,
"##dQBrM": 3385,
"EDApdm": 3386,
"Uf": 199399,
"##aFq": 3389,
"JJ": 167215,
"##lV": 112998,
"##UQFK": 3392,
"##OYumQB": 3393,
"zA": 146309,
"YpPsdO": 3395,
"##qeMQIs": 3396,
"lv": 172477,
"##WkYo": 3398,
"##Qbu": 3399,
"ETI": 3400,
"##afQ": 3401,
"##gdwunG": 3402,
"##aMrEZ": 3403,
"wY": 196886,
"##EcwIS": 3405,
"hEOPe": 3406,
"##WF": 151779,
"##mNb": 184000,
"##ASGar": 3409,
"##sxGdf": 3410,
"oXIn": 3411,
"JS": 190372,
"##wBJgi": 3413,
"oiuB": 3414,
"##TcJk": 3415,
"##LuQiAx": 3416,
"##PTxp": 3417,
"##GNmYhb": 3418,
"HDDW": 3419,
"##yBohby": 3420,
"REMGeO": 3421,
"IpoS": 3422,
"alx": 3423,
"##yDPF": 3424,
"xUJYyJ": 3425,
"##GoRK": 3426,
"##YrYfec": 3427,
"ehWBwn": 3428,
"##mfLH": 3429,
"##kWZCpr": 3430,
"Gcahh": 3431,
"##HmF": 3432,
"ZeM": 3433,
"##IHA": 68978,
"##UTL": 174663,
"cWNAO": 3436,
"Qw": 132590,
"RetcLo": 3438,
"##PDaiHu": 3439,
"##unH": 3440,
"##GlwYeQ": 3441,
"tUGTQ": 3442,
"ep": 197306,
"NDNn": 3444,
"DnwxF": 3445,
"##PFogB": 3446,
"##QAmKSm": 3447,
"USLd": 3448,
"kaJqU": 3449,
"##oIF": 3450,
"##NlIq": 3451,
"vGSvKo": 3452,
"##VK": 99997,
"Thyj": 3454,
"uvv": 3455,
"Im": 169589,
"##FBuXcW": 3457,
"Tcem": 3458,
"pgv": 3459,
"##nbFtX": 3460,
"##WWdeEP": 3461,
"##kqY": 3462,
"waRV": 3463,
"vHR": 3464,
"##UJL": 3465,
"NNw": 132760,
"uRjUKW": 3467,
"Rgemfa": 3468,
"##wsvCNH": 3469,
"EX": 187026,
"##hhV": 3471,
"##OqS": 3472,
"dksycs": 3473,
"kFuK": 3474,
"mIDHS": 3475,
"##ug": 197034,
"##Ijgr": 3477,
"Ban": 3478,
"##bLWI": 3479,
"bWr": 3480,
"qTdeO": 3481,
"ZNb": 3482,
"qkaWey": 3484,
"IlORBY": 3485,
"##gTD": 3486,
"hL": 162979,
"GcyWth": 3488,
"po": 186815,
"##dOyQ": 3490,
"##drmYnE": 3491,
"suR": 3492,
"bLjHa": 3493,
"FiHydx": 3495,
"lmtx": 3496,
"##QH": 198269,
"##qGf": 3498,
"##WZoPR": 3499,
"##zA": 133405,
"qdvq": 3501,
"##hw": 141310,
"##XHGeR": 3503,
"WeJvHI": 3504,
"gGrD": 3505,
"##PBc": 3506,
"##Sz": 198731,
"Ahp": 3508,
"DcIBuP": 3509,
"##xKz": 3510,
"##bYFL": 3511,
"vn": 189091,
"mvWJMA": 3513,
"##GTYkow": 3514,
"##aiQdi": 3515,
"##siq": 3516,
"ISK": 117194,
"kd": 194955,
"##FzX": 3519,
"##YQ": 183247,
"##Rs": 184920,
"##nJCaBu": 3522,
"##tFxZxr": 3524,
"##tcWNj": 3525,
"deKo": 3526,
"##frQFnx": 3527,
"hZsoG": 3528,
"Ws": 192723,
"eZk": 3530,
"##UC": 186303,
"##UaFHl": 3532,
"WBszc": 3533,
"DHWn": 3534,
"sW": 162729,
"WPhIHg": 3536,
"##FxA": 3537,
"##yaZVn": 3538,
"mFwtjV": 3540,
"##zLvehM": 3541,
"##uqJx": 3542,
"CY": 197273,
"##WaN": 3544,
"##nZtWct": 3545,
"poTWO": 3546,
"FI": 160772,
"CG": 191884,
"##PdT": 3549,
"##mkeCsN": 3550,
"RTmaxe": 3551,
"##vm": 141343,
"##flRbvH": 3553,
"##jFtc": 3554,
"##lKIatR": 3555,
"##xdkKd": 3556,
"##JTv": 3557,
"##zLgeiH": 3558,
"##eIqav": 3559,
"##MmSO": 3560,
"##lAzCY": 3561,
"ueEoY": 3562,
"##oaT": 3563,
"##iBw": 3564,
"##vsdiR": 3565,
"##cu": 181283,
"##oOnWd": 3567,
"nAFVX": 3568,
"slGDrY": 3569,
"iGOk": 3570,
"##VIoku": 3571,
"ZFhtA": 3572,
"##tELo": 3573,
"##dViLg": 3574,
"fH": 178086,
"dkzE": 3576,
"##oyooQ": 3577,
"ybLqkQ": 3578,
"WN": 190158,
"ggI": 3580,
"UQj": 3581,
"bIfCST": 3582,
"##ex": 134724,
"dUXCu": 3584,
"uPML": 3585,
"DTK": 3586,
"##LPK": 3587,
"TBlLyG": 3588,
"HpsIZ": 3589,
"##Zh": 172560,
"##wZp": 3592,
"khvI": 3593,
"##DNsQAr": 3594,
"##cxfk": 3595,
"##bLSoL": 3596,
"##iJMX": 3597,
"##XL": 199599,
"CL": 170037,
"QkvO": 3600,
"vRiZo": 3601,
"PcWNv": 3602,
"jbm": 3603,
"##GeDXJt": 3604,
"OUGc": 3605,
"ow": 179942,
"qjmzg": 3607,
"gtL": 3608,
"oBrKtv": 3609,
"##IpOVI": 3610,
"##ypx": 3611,
"CYsgE": 3612,
"##OBP": 3613,
"SfVod": 3614,
"##JEwmb": 3615,
"rfEAw": 3616,
"##fWsS": 3617,
"##RXiF": 3618,
"##HoFPht": 3619,
"##RClAId": 3620,
"YWBnnA": 3621,
"LpqxP": 3622,
"##KdTMcR": 3623,
"UJCxZS": 3624,
"##HAc": 3625,
"##yy": 113223,
"ywECt": 3627,
"knAKmf": 3628,
"lgFUvH": 3629,
"YZvE": 3630,
"sJX": 3631,
"##Eirp": 3632,
"cwyqkm": 3633,
"##DPFzG": 3634,
"cA": 192727,
"AjY": 3636,
"##ag": 170448,
"DQsC": 3638,
"czA": 76520,
"eTlW": 3640,
"KExDf": 3641,
"AHgqgS": 3642,
"##CQzp": 3643,
"TdCwo": 3644,
"##ffhV": 3645,
"FzxXn": 3646,
"qcpO": 3647,
"qlkaO": 3648,
"##BU": 169102,
"##ycWpP": 3650,
"xVDF": 3651,
"FOw": 50910,
"lgSgUj": 3653,
"pMUNvq": 3654,
"##DzCSk": 3655,
"sqPBN": 3656,
"##tA": 185312,
"##dKumE": 3658,
"##IY": 164425,
"auSzq": 3660,
"CsYMY": 3661,
"MxJ": 3662,
"##poas": 3663,
"##XZt": 3664,
"iLSC": 3665,
"iHm": 3666,
"##nEEF": 3667,
"dZkw": 3668,
"Ru": 168337,
"##Pbs": 3670,
"YVbUe": 3671,
"##XWYFU": 3672,
"##Mm": 170695,
"TzKwTO": 3674,
"HBL": 3675,
"##vz": 197313,
"##WakMEa": 3677,
"IEDC": 3678,
"##kwXjD": 3679,
"LLXBP": 3680,
"tVkt": 3681,
"gThaC": 3682,
"##gYkhg": 3683,
"##VnsJ": 3684,
"##ihreun": 3685,
"MYk": 3686,
"##jgFUR": 3687,
"##hrH": 3688,
"##maAEB": 3689,
"##KvQdX": 3690,
"LYKMkX": 3691,
"twvRgi": 3692,
"VttTzo": 3693,
"##fcYy": 3694,
"XgtRWY": 3695,
"XPff": 3696,
"##hiunN": 3697,
"##JP": 143425,
"KUWjF": 3699,
"SPH": 3700,
"hbWTPk": 3701,
"vgxJ": 3702,
"wUrsI": 3703,
"hZY": 84537,
"zpxH": 3705,
"##wIXi": 3706,
"##PwPZ": 3707,
"##eJLqBM": 3708,
"##IkACv": 3709,
"jszVH": 3710,
"jvFAF": 3711,
"rn": 182542,
"##zmi": 3713,
"##cFe": 3714,
"bwurV": 3715,
"yG": 186488,
"##xff": 3717,
"XprO": 3718,
"LZ": 185070,
"wzcGnY": 3720,
"##UHOEzm": 3721,
"##isKrXk": 3722,
"##IjkOga": 3723,
"OjAaaU": 3724,
"##fpHoaH": 3725,
"##gLljtE": 3727,
"##WIz": 3728,
"hrv": 25267,
"##cDnY": 3731,
"##nyr": 3732,
"##ifTEr": 3733,
"kUTg": 3734,
"##zoe": 3735,
"JNXv": 3736,
"LGP": 129358,
"CfBqP": 3738,
"KgGEKk": 3739,
"jRyk": 157829,
"Sxg": 175535,
"##mi": 193916,
"Yp": 192010,
"vRZ": 3745,
"QSoJHj": 3746,
"zExD": 3747,
"YfTLym": 3748,
"##tCYP": 3749,
"##Qj": 197094,
"KuCHdL": 3751,
"##mK": 195506,
"tnQBnq": 3753,
"##ntNtM": 3754,
"##ZeeBK": 3755,
"##QuJBD": 3756,
"gzt": 3757,
"qzhNQ": 3758,
"##DxJtf": 3759,
"ASdc": 3760,
"##Vrqj": 3761,
"##BmbAl": 3762,
"##Vp": 187459,
"##KdmBQ": 3764,
"DKwnFw": 3765,
"RCzf": 3766,
"##TsX": 3767,
"##VdvBMc": 3768,
"iASqqR": 3769,
"##RQgsNp": 3770,
"rGt": 3771,
"jtNKN": 3772,
"PGPlla": 3773,
"Utru": 3774,
"##kJM": 3775,
"##idDFbE": 3776,
"##NpDFA": 3777,
"##QfCKlX": 3778,
"dcKE": 3779,
"kIH": 3780,
"OI": 189002,
"mmM": 91184,
"PHW": 3784,
"bkYU": 3785,
"##Su": 130507,
"##WYLOr": 3787,
"##Ca": 178571,
"##fh": 189129,
"##KlF": 3790,
"LRlRdj": 3791,
"Gfga": 3792,
"TroUy": 3793,
"Uyxh": 3794,
"##Aog": 3795,
"##pw": 193992,
"sMwTT": 3797,
"fn": 197398,
"JJHam": 3799,
"rguZ": 3800,
"##AU": 185167,
"Emay": 3802,
"hHEGBG": 3803,
"bRmkI": 3804,
"##BtL": 3805,
"##NWwOs": 3806,
"##xl": 129754,
"lmV": 198939,
"##Oz": 169374,
"##qKrSqO": 3810,
"##fgdc": 3811,
"##wK": 138690,
"##NfSm": 3813,
"QSBE": 3814,
"##GoJ": 3816,
"##wKce": 3817,
"ZIhe": 3818,
"##eJCaJ": 3819,
"##BAGW": 3820,
"##XVGuI": 3821,
"##YRK": 3822,
"##MlA": 3823,
"pDE": 3824,
"##UizMP": 3825,
"##cvUC": 3826,
"lLu": 3827,
"##jbq": 3828,
"jTwz": 3829,
"##JoIOH": 3830,
"Lge": 3831,
"##mLOBZG": 3832,
"##szxNL": 3833,
"##oxito": 3834,
"##ALh": 3835,
"##bIAk": 3836,
"##Wfbejg": 3837,
"##MzQaww": 3838,
"##dBo": 3839,
"lPVmcn": 3840,
"##UnI": 3841,
"HQ": 198095,
"Ue": 176965,
"##XAtqbN": 3844,
"##JyUo": 3845,
"##emfR": 3846,
"##WsZtJ": 3847,
"##Fy": 193583,
"AjpmVy": 3849,
"vhCA": 3850,
"DpqW": 3851,
"##Jwj": 35373,
"nhhUXc": 3853,
"aDly": 3854,
"jrhH": 3855,
"lVh": 3856,
"##Rkn": 3857,
"wT": 192796,
"##bTAf": 3859,
"mBEYEx": 3860,
"##RtA": 3861,
"ARBmgU": 3862,
"riod": 3863,
"##BKg": 3864,
"##hJNDFB": 3865,
"DXChfC": 3866,
"DAT": 3867,
"qXFlmF": 3868,
"##cVl": 3869,
"##LfHA": 3870,
"##ncj": 43263,
"AY": 164224,
"##dzX": 3873,
"##kpbpr": 3874,
"ZhmHfJ": 3875,
"##gBzmP": 3876,
"dAEsw": 3877,
"raKRtK": 3878,
"LAAk": 3879,
"vlt": 4828,
"##BcLxxn": 3881,
"ssUCS": 3883,
"##ROO": 3884,
"zjTo": 3885,
"nkHv": 3886,
"##NSlxZ": 3887,
"##ysgyW": 3888,
"VMv": 3889,
"vOr": 3890,
"kXN": 3891,
"##HFAvAm": 3892,
"jsK": 3893,
"pllf": 3894,
"mAW": 3895,
"##Vlp": 3896,
"IrC": 3897,
"##imZ": 3898,
"Hw": 154150,
"HqQb": 3900,
"##jl": 193124,
"roKuCa": 3902,
"HbD": 3903,
"bNaZOU": 3904,
"TiYg": 3905,
"##GdHw": 3906,
"##jHsPxA": 3907,
"dKEp": 3908,
"##Yp": 170428,
"sS": 177535,
"##FICS": 3913,
"##xyZug": 3914,
"NeN": 3915,
"##DKyp": 3916,
"##Uc": 188702,
"##ZeomEK": 3918,
"##TuCJKw": 3919,
"##RxBtQ": 3920,
"EPDDoZ": 3921,
"##AJm": 3922,
"##cntBdo": 3923,
"efm": 3924,
"NatfK": 3925,
"##IKsh": 3926,
"CtKH": 3927,
"##GYFhJU": 3928,
"Job": 3929,
"##nA": 169012,
"##yj": 191455,
"KFsND": 3932,
"##lSOVH": 3933,
"aYfSWi": 3934,
"##dN": 195193,
"OAyS": 3936,
"##spHqpf": 3937,
"tI": 191712,
"mfxxV": 3939,
"ViDlx": 3940,
"##uaDQJp": 3941,
"QqFsY": 3942,
"lXH": 47506,
"wk": 197811,
"gdhP": 3945,
"##sjvns": 3946,
"DdncVi": 3947,
"UDvlHr": 3948,
"##KMYPGa": 3949,
"FDfP": 3950,
"##EW": 196669,
"Qt": 179932,
"##Cc": 177546,
"lPZRD": 3954,
"##tndiWq": 3955,
"##xeA": 3956,
"Ijl": 3957,
"PSI": 3958,
"##VfK": 3959,
"##Kaw": 3960,
"##tG": 180864,
"##oA": 184798,
"ZRI": 3963,
"##UhnCq": 3964,
"##iHQj": 3965,
"##LZoe": 3966,
"VlDNJ": 3967,
"##lj": 195788,
"##vVrUGX": 3969,
"##dBJ": 3970,
"##spiN": 3971,
"cGum": 3972,
"##ihmz": 3973,
"##bLNx": 3974,
"##pNyzmL": 3975,
"GIObrb": 3976,
"##HGM": 3977,
"XsOl": 3978,
"##SBeZ": 3979,
"##uRxvnj": 3980,
"##vVCIIC": 3981,
"##xJHuj": 3982,
"YsZZ": 3983,
"##WsG": 3984,
"TWDh": 168117,
"qQb": 3986,
"##CtE": 25735,
"##MiY": 3988,
"jqtwqo": 3989,
"##dGuSTI": 3990,
"##pNs": 3991,
"##dli": 3993,
"WcNwA": 3994,
"##mYRePY": 3995,
"##tiUTLy": 3996,
"##eeO": 3997,
"##Oi": 197540,
"ABbXp": 3999,
"##RhIXQt": 4000,
"##dUleh": 4001,
"IY": 180746,
"pp": 184267,
"fDxIV": 4004,
"##vh": 122697,
"UmD": 4007,
"Zhfz": 4008,
"mWIFi": 4009,
"##gXs": 4010,
"##Nh": 169887,
"##hv": 141243,
"##qESJ": 4013,
"##mgRR": 4014,
"##Si": 191636,
"##cE": 196188,
"##maDKQ": 4017,
"OEpBDj": 4018,
"AWYUXE": 4019,
"BgxXtf": 4020,
"IBh": 4021,
"##zsQ": 4022,
"fbNR": 4023,
"##ViGLJ": 4024,
"##zDzbpy": 4025,
"##NvtOJ": 4026,
"WPVLpX": 4027,
"iNakG": 4028,
"YwYxot": 4029,
"##MY": 171981,
"xq": 189003,
"##sGDE": 4032,
"##XJelT": 4033,
"TT": 166623,
"##UOHh": 4035,
"jj": 197057,
"##fTTMa": 4037,
"NYbtZS": 4038,
"Nez": 4039,
"LrY": 4040,
"##XtyL": 4041,
"##uTpUhO": 4042,
"##dZPtqH": 4043,
"##TwJD": 4044,
"##Hu": 196877,
"##cerV": 4046,
"##TAwiC": 4047,
"##IkIQoe": 4048,
"##sEgB": 4049,
"xTn": 4050,
"##pDRRu": 4051,
"cotXM": 4052,
"yo": 169026,
"##VBzS": 4054,
"bzn": 4055,
"##CagRwE": 4056,
"##Qwhqcl": 4057,
"##LuvhMC": 4058,
"KvBE": 4059,
"##Ob": 199714,
"##RP": 151654,
"tKm": 4062,
"##COeuNu": 4063,
"##dg": 171251,
"##iMbj": 4065,
"lVLtJ": 4066,
"GHnhja": 4067,
"IIlMZ": 4068,
"##uAsXEL": 4069,
"mCVXY": 4070,
"acYyd": 4071,
"##cWIWl": 4072,
"WnJZaL": 4073,
"##KhBNBv": 4074,
"fa": 117665,
"FwFPuF": 4076,
"QTz": 4077,
"##TCPD": 4078,
"WdWD": 4079,
"CfhV": 4080,
"CzYv": 4081,
"dtqA": 4082,
"FLK": 4083,
"##Un": 189871,
"zfc": 4085,
"##JgZd": 4086,
"##aFlTK": 4087,
"Irce": 4088,
"##fIReMu": 4089,
"##fyQu": 4090,
"fQX": 4091,
"uSF": 127512,
"sZnEuK": 4093,
"##lJiCg": 4094,
"##dF": 172244,
"##ijVdvL": 4096,
"##KJcQ": 4097,
"##qD": 186655,
"TJuyXI": 4099,
"##eVjk": 4100,
"IJLrU": 4101,
"##PKKHo": 4102,
"##odrF": 4103,
"Kevzkv": 4104,
"##DQFlR": 4105,
"##mrM": 4106,
"uIs": 4107,
"##hfWA": 4108,
"##qPY": 4109,
"NtS": 150101,
"fhMtBf": 4111,
"CeM": 4112,
"Sbor": 4113,
"##ZOE": 4114,
"##FvZ": 4115,
"zuFjk": 4116,
"EhfTXt": 4117,
"##uD": 160079,
"##Kd": 158067,
"Qk": 191776,
"##JxESeh": 4121,
"aG": 124668,
"##ZdSaaK": 4123,
"##Rv": 194702,
"voKSIa": 4125,
"rBopM": 4126,
"cbPGp": 4127,
"eYcHrm": 4128,
"##YisPP": 4129,
"sTi": 4130,
"##iDGq": 4131,
"SGBn": 4132,
"cyvI": 4133,
"##lfIr": 4134,
"FqMDDs": 4135,
"##YhHNyJ": 4136,
"JUOH": 4138,
"##Xov": 4139,
"##WoH": 4140,
"cd": 114223,
"##mq": 174351,
"##Hv": 195123,
"##qXnl": 4144,
"##fthgj": 4145,
"##Fp": 195898,
"SFppc": 4147,
"JHO": 4148,
"##fDQ": 4149,
"##Yg": 189393,
"##XqKjI": 4152,
"cXp": 4153,
"##Vsl": 4154,
"##hFNgGc": 4155,
"##bbSQZ": 4156,
"##rohN": 4157,
"##oVC": 4158,
"eOH": 142302,
"OHlL": 4160,
"##Uy": 170583,
"##Bsr": 4162,
"hnj": 4163,
"##frJdLb": 4164,
"BBEP": 4165,
"SLd": 4166,
"mwZB": 4167,
"##JTGz": 4168,
"##JiBZ": 4169,
"Fgow": 4170,
"##wKmvi": 4171,
"KgHYWR": 4172,
"eiVF": 4173,
"ZO": 195152,
"##MspJ": 4175,
"##JPqhff": 4176,
"##wufY": 4177,
"##VtF": 4178,
"OKQ": 4179,
"Oq": 198804,
"##sw": 193048,
"IvBOT": 4183,
"useQB": 4184,
"##ce": 197236,
"wN": 192474,
"tyJSOp": 4187,
"##jJl": 4188,
"bh": 171082,
"##yXf": 4190,
"##dt": 196151,
"LzSf": 4192,
"##eIaNiy": 4193,
"##hFcF": 4194,
"##oDbjaR": 4195,
"##zVS": 59950,
"##jvjYTy": 4197,
"##QQeAc": 4198,
"##uajmN": 4199,
"OAZv": 4200,
"##hPoTm": 4201,
"VB": 185555,
"##VNK": 4203,
"##Ue": 189041,
"gdGIO": 4205,
"JT": 194325,
"Je": 146121,
"yjlU": 4208,
"oaFQ": 4209,
"ePDqi": 4210,
"##hkiFy": 4211,
"yDh": 4212,
"nMiTjE": 4213,
"##RilWd": 4214,
"##JRUeE": 4215,
"cBxHI": 4216,
"hy": 196785,
"##zM": 176599,
"##qbB": 4219,
"ErVLG": 4220,
"##TBj": 4221,
"##qpb": 4222,
"xdYAwV": 4223,
"Wbk": 4225,
"icdEA": 4226,
"HjOq": 4228,
"dXsa": 4229,
"##NsEzM": 4230,
"##FMuzXz": 4231,
"ZAfQsz": 4232,
"YtLlqk": 4233,
"##IiuFVU": 4234,
"qoHwp": 4235,
"##eiVsV": 4236,
"PET": 4237,
"##Gc": 186321,
"##ytjBr": 4239,
"##ZOVlfl": 4240,
"##YPfsy": 4241,
"DOBk": 4242,
"nJJ": 4243,
"Bkyi": 4244,
"##EDMQB": 4245,
"##LLfm": 4246,
"##oBajgv": 4247,
"AcqyIt": 4249,
"##bAUmFr": 4250,
"##ydkK": 4251,
"YRV": 49830,
"mBDJSO": 4253,
"tBJ": 4254,
"ybw": 4255,
"ft": 193648,
"gQGs": 4257,
"wrJdi": 4258,
"vxOPJH": 4259,
"##uSbCl": 4260,
"AbxI": 4261,
"Qukj": 4262,
"vk": 141276,
"##Cb": 165840,
"HPrAb": 4265,
"##dgi": 4266,
"xfCL": 4267,
"mJgmw": 4268,
"##KsY": 4269,
"##nCejkk": 4270,
"ES": 194291,
"HDQ": 4272,
"##izUay": 4273,
"##cT": 166127,
"##ljnz": 4275,
"PhxIm": 4276,
"##zRcz": 4277,
"##Tz": 193744,
"##RiFGGk": 4279,
"##CY": 191550,
"fHtT": 4281,
"EUJi": 4282,
"##FAf": 4283,
"CKcW": 4284,
"##BwOH": 4285,
"YRtnX": 4286,
"qZaHm": 4287,
"##wsip": 4288,
"##umK": 4289,
"Ttrbv": 4290,
"xm": 196654,
"##qFQk": 4292,
"##SOhfrN": 4293,
"##wWt": 4294,
"Utreb": 4295,
"EC": 191592,
"qvzmq": 4297,
"et": 167571,
"##MW": 193441,
"sgd": 4300,
"##gVNnwZ": 4301,
"xbOkf": 4302,
"SeUMT": 4303,
"##vnEzlL": 4304,
"BO": 193577,
"##DsEB": 4306,
"##FYm": 4307,
"##KFVdwN": 4308,
"##kn": 199388,
"TVj": 4310,
"zX": 190296,
"##EGfiJ": 4312,
"PZ": 190315,
"tXd": 4314,
"fywU": 4315,
"dYgw": 4316,
"XaC": 4317,
"##FuZdOU": 4318,
"##VG": 186992,
"MZS": 191050,
"##bxSM": 4321,
"ED": 190392,
"##jKHhDk": 4323,
"ba": 186464,
"EM": 199067,
"PPcG": 4326,
"BmbJv": 4327,
"##ILKXR": 4328,
"##Meh": 4329,
"##USXDb": 4330,
"EO": 152723,
"##HjytC": 4332,
"##kVHOAp": 4333,
"GTzIlr": 4334,
"##rboutE": 4335,
"##PHUWmU": 4336,
"mVgt": 4337,
"##xrs": 4338,
"LfF": 4339,
"dgWWu": 4340,
"yivVAt": 4341,
"##wqTRh": 4342,
"NUSzh": 4343,
"##hnmray": 4344,
"##YnH": 4345,
"##SGgn": 4346,
"Fc": 194313,
"##zh": 186713,
"##VL": 184958,
"##OMWWn": 4350,
"##yZ": 121367,
"xxMpk": 4352,
"csma": 4354,
"YlGfz": 4355,
"##ycuMiU": 4356,
"##BWp": 4357,
"##Yi": 138512,
"##ecWGNY": 4359,
"##IAJSmB": 4360,
"dSNYWx": 4361,
"##xBr": 4362,
"Wmhtr": 4363,
"tzclQf": 4365,
"fqnM": 4366,
"SNG": 4367,
"##EmFe": 4368,
"##AmRDSm": 4369,
"##nu": 135066,
"mcOb": 4371,
"##jmG": 4372,
"cSgj": 4373,
"##QV": 188588,
"##tnnixZ": 4375,
"cgJTZb": 4376,
"rFOP": 4378,
"Xs": 197133,
"bwx": 4381,
"##mxuz": 4382,
"##PJs": 4383,
"##pQH": 4384,
"upkQu": 4385,
"##wA": 187167,
"##qvFS": 4387,
"rrK": 4388,
"##oSUzY": 4389,
"IPL": 4390,
"##mtlpYD": 4391,
"##CJiYT": 4392,
"cHs": 4393,
"vOF": 4394,
"dlfaYJ": 4395,
"##RoFS": 4396,
"##FfxW": 4397,
"##bmLQj": 4398,
"##Ezjy": 4399,
"##UZcLv": 4400,
"##YKu": 4401,
"gA": 162020,
"##wT": 189391,
"##RNjXgn": 4404,
"eE": 160916,
"RO": 173702,
"##mzqP": 4407,
"sdYawt": 4408,
"bNCy": 4409,
"##htN": 4410,
"##VR": 188640,
"VA": 195468,
"ny": 101571,
"rjyxg": 4414,
"##qbb": 4415,
"##eCKsfx": 4416,
"##lgo": 4417,
"##CCbxHA": 4418,
"LYfVC": 4419,
"EhdUB": 4420,
"kbMGpf": 4421,
"##JygciD": 4422,
"whAcwm": 4423,
"ERG": 4424,
"fq": 149788,
"##IsZXc": 4426,
"##llup": 4427,
"ZAPY": 4428,
"##xCfoKL": 4429,
"##eKG": 4430,
"PfcpC": 4431,
"CR": 184593,
"##NdZTy": 4433,
"##rAf": 4434,
"qwhkP": 4435,
"##jjpofp": 4436,
"qjCxT": 4437,
"##jYo": 4438,
"##JrQr": 4439,
"##bmXyaP": 4440,
"##kGM": 4441,
"ojQ": 4442,
"##krU": 4443,
"vm": 194170,
"NVUo": 4445,
"xdJhLP": 4446,
"vOgzL": 4447,
"##Is": 170785,
"nyi": 39254,
"##Fhhni": 4450,
"sAmzNu": 4451,
"##qk": 193813,
"##MrgtW": 4453,
"##Vak": 4454,
"BZaj": 4455,
"##Hnhe": 148907,
"##PSOyji": 4457,
"LYUxg": 4458,
"VBGCQ": 4459,
"bU": 179833,
"##Yr": 196502,
"qxR": 4462,
"nlYalR": 4463,
"LIwGa": 4464,
"lAUbOs": 4465,
"BBo": 4466,
"NQiFft": 4467,
"ciUaT": 4468,
"##eouEnr": 4469,
"##fcc": 70709,
"##LXqEG": 4471,
"Ehz": 4472,
"##eh": 171482,
"##Mde": 4474,
"aqLTU": 4475,
"##NRmtr": 4476,
"Pi": 172620,
"kR": 154999,
"##LWU": 4479,
"UqmUU": 4480,
"cJpVb": 4481,
"yc": 186323,
"wmq": 4483,
"Xle": 156359,
"Umtots": 4485,
"RBusun": 4486,
"mtG": 4487,
"##jxh": 4488,
"##eI": 192733,
"##zYdcHQ": 4490,
"##RCr": 4491,
"##HRhlm": 4492,
"ged": 4493,
"##DTD": 4494,
"bXUjK": 4495,
"##xscCX": 4496,
"##zWNMe": 4497,
"qj": 128961,
"##Cuu": 4499,
"##RJcA": 4500,
"jz": 186590,
"##QBf": 4502,
"##KtpdNQ": 4503,
"##MK": 199159,
"EccU": 4505,
"bBujQg": 4506,
"SoonqS": 4507,
"EXZ": 4508,
"XgAG": 4509,
"##dMRKsO": 4510,
"##ppx": 4511,
"##DPcEn": 4512,
"JzZp": 4513,
"qasP": 4514,
"##xFuEYg": 4515,
"##lEL": 4516,
"apvWyg": 4517,
"XOmp": 4518,
"##xjgFV": 4519,
"##US": 190174,
"##SzeZz": 4521,
"ruw": 4522,
"rGCG": 4523,
"##gFjnv": 4524,
"##nIkQC": 4525,
"##OvAGD": 4526,
"##vPZAcX": 4527,
"LALNRk": 4528,
"NI": 181447,
"##zjsXlK": 4530,
"##Uwv": 4531,
"##kZBE": 4532,
"COHZ": 4533,
"SqQQf": 4534,
"XnCI": 4535,
"##nQWHw": 4536,
"##qVWe": 4537,
"##kug": 4538,
"##js": 173253,
"WZtcAf": 4541,
"##WhgR": 4542,
"glpG": 4543,
"##Rt": 159924,
"##xeUAck": 4545,
"##QfYv": 4546,
"TKfyL": 4547,
"eULxq": 4548,
"RVN": 4549,
"##ZeN": 4550,
"WMy": 4551,
"caDmM": 4552,
"tydWb": 4553,
"##KiTjL": 4554,
"oTEcXo": 4555,
"HRXmA": 4556,
"IU": 148121,
"##CnJFY": 4558,
"dJb": 4559,
"##ZqEJ": 4560,
"##kbif": 4561,
"oA": 85988,
"##EdRQVo": 4563,
"##upwqM": 4565,
"cArejz": 4566,
"bsjf": 4567,
"mIvpI": 4568,
"##EHMwoM": 4569,
"##Fz": 174302,
"##QLzknv": 4571,
"##jc": 187384,
"uKEln": 4573,
"##FO": 168492,
"##tICtS": 4575,
"pILK": 4576,
"##oEqm": 4577,
"##KpfFN": 4578,
"sZaT": 4579,
"##xg": 160615,
"Cpg": 4581,
"RGUoa": 4582,
"##DIRvNx": 4583,
"aw": 172733,
"##FnNlsA": 4585,
"##bbKkY": 4586,
"##qgiV": 4587,
"hnNX": 4589,
"##us": 176595,
"##xDhYM": 4591,
"Dddck": 4592,
"##Uit": 4593,
"##ioP": 4594,
"##Ki": 198683,
"##pndBt": 4596,
"##RXWtg": 4597,
"##ktInLN": 4598,
"##pfhou": 4599,
"##soUu": 4600,
"##jaZyrZ": 4601,
"##lq": 192242,
"SW": 199374,
"##VCiVu": 4604,
"##QuoH": 4605,
"##Uhr": 4606,
"##IJx": 4607,
"##Kc": 196793,
"knKM": 4609,
"##Cltq": 4610,
"nSNGc": 4611,
"##yf": 176797,
"Ox": 199000,
"tiszAB": 4614,
"##idZKMl": 4615,
"RzT": 33447,
"##Cz": 112844,
"REuO": 4618,
"GAph": 4619,
"qRK": 4620,
"Ltr": 4621,
"Mr": 165881,
"GB": 195897,
"yQLIZo": 4624,
"RY": 186839,
"##PWblq": 4626,
"mQiV": 4627,
"##Mnz": 4628,
"##rwB": 110526,
"OcIsu": 4630,
"YOMwHs": 4631,
"##EGOe": 4632,
"yL": 160913,
"QXBNj": 4634,
"aPN": 4636,
"Cqzcq": 4637,
"tkL": 4638,
"##IFFIQ": 4639,
"QE": 184330,
"##Lcr": 4642,
"##OK": 175835,
"##Mst": 166842,
"pq": 141015,
"##HlG": 4646,
"##xBM": 4647,
"bCTipa": 4648,
"NU": 198392,
"ArT": 4650,
"##CboX": 4651,
"##nCnhXC": 4652,
"odaT": 4653,
"##bjIRD": 4654,
"##vxTZk": 4655,
"##LtQZA": 4656,
"qwCflf": 4657,
"##TUFu": 4658,
"##bTOrD": 4659,
"Iq": 132153,
"##YkZS": 4661,
"mdZL": 4662,
"cGDQy": 4663,
"EXTyRr": 4664,
"yXNV": 4665,
"uMQqpm": 4666,
"##yS": 111247,
"rjDtM": 4668,
"FxkE": 4669,
"GYWX": 4670,
"##nHNB": 4671,
"##Ik": 60235,
"jWln": 4673,
"kL": 175880,
"##pOyNQ": 4675,
"##MFyKC": 4676,
"omoZ": 4677,
"El": 189258,
"##XhY": 4679,
"##co": 180034,
"PrVxHh": 4681,
"XBXIbd": 4682,
"gzE": 4683,
"Usy": 4684,
"ls": 122440,
"BDlu": 4686,
"##bSKx": 4687,
"Wxrj": 4688,
"TYXsMk": 4689,
"##zqq": 4690,
"##JMs": 4691,
"gs": 172773,
"##driHt": 4693,
"##jAhX": 4694,
"##NkmF": 4695,
"sGxc": 4696,
"##DJ": 163314,
"kMKORF": 4698,
"VzN": 4699,
"nSsDzh": 4700,
"##qS": 157671,
"##nMBMm": 4702,
"##sLTuF": 4703,
"##Ktz": 4704,
"##wuEirl": 4705,
"##kfq": 4706,
"##rrq": 4707,
"##Hl": 155702,
"ARV": 4710,
"ex": 155639,
"VDRQ": 4712,
"tblbuw": 4713,
"SeDAzZ": 4714,
"INbr": 4715,
"edF": 4716,
"PoKViw": 4717,
"ttzs": 4718,
"##GQBdK": 4719,
"##vLnfD": 4720,
"##SUAvcd": 4721,
"##MgD": 154130,
"##JAaoux": 4723,
"zYdZ": 4724,
"nWCIW": 4725,
"##RTG": 4726,
"##cS": 181466,
"oYRTrh": 4728,
"##FQMMNj": 4729,
"##NnkdLS": 4730,
"VFqa": 4731,
"hPyEPX": 4732,
"jKuw": 4733,
"NRqkZV": 4735,
"abwHcT": 4736,
"vE": 189663,
"##aCYc": 4738,
"gc": 182732,
"URuos": 4740,
"QTRYC": 4741,
"WNxD": 4742,
"JYYfX": 4743,
"##yVCCi": 4744,
"##ulDA": 4745,
"##IQ": 187752,
"##riMCa": 4747,
"wKCHCF": 4748,
"##Jnh": 4749,
"##mLcCLe": 4750,
"cOAo": 4751,
"OqjK": 4752,
"ZCgr": 4753,
"##TyUD": 4754,
"EtgPt": 4755,
"fHVnvv": 4756,
"IRxMPD": 4757,
"##AT": 188609,
"QWvHV": 4759,
"##EbeMzL": 4760,
"LUkbqt": 4761,
"##YPnB": 4762,
"##NVBeM": 4763,
"##Ij": 175979,
"ANY": 83737,
"##JDd": 76628,
"##wXjzaH": 4767,
"GH": 180476,
"mO": 189355,
"##njDuGG": 4770,
"roS": 4771,
"Xfz": 4772,
"dzpX": 4773,
"##nagPl": 4774,
"##WVLX": 4776,
"##svFpN": 4777,
"wlz": 4778,
"##sRKTX": 4779,
"##XW": 193790,
"gm": 173615,
"##oxzi": 4782,
"##aTOO": 4783,
"nlegh": 4784,
"##wSOrhM": 4785,
"taVsyF": 4786,
"PpLd": 4787,
"##fWg": 4788,
"sUDd": 4789,
"qG": 194473,
"##Jkj": 4792,
"xgA": 4793,
"##vcy": 4794,
"##Sy": 194942,
"MOv": 4796,
"##fjokVe": 4797,
"##EvvJAK": 4798,
"##GuvKlT": 4799,
"FmZ": 4800,
"hX": 157792,
"##zrq": 124480,
"HLt": 4803,
"KyB": 4804,
"cPgA": 4805,
"##hhXFy": 4806,
"##lW": 171818,
"##ZOEy": 4808,
"##qF": 192015,
"##CHi": 4810,
"##YvQJz": 4811,
"TzNd": 4812,
"XLo": 4813,
"fPGGg": 4814,
"Fr": 188314,
"##jsKSO": 4816,
"##GKFt": 4817,
"##Sg": 187001,
"##Suwgs": 4819,
"##Xu": 197822,
"##abyI": 4821,
"##HHRXOa": 4822,
"Vg": 188987,
"##wgWZL": 4824,
"vvWsWz": 4825,
"RX": 109192,
"Gq": 190571,
"##Fky": 4830,
"##EfC": 4831,
"IdLZc": 4832,
"Joi": 4833,
"wcHNEP": 4834,
"dXpIMW": 4835,
"YGi": 4836,
"##iv": 91227,
"KiJUBD": 4838,
"##bkf": 4839,
"##LkIaj": 4840,
"zFif": 4841,
"##MXSb": 4842,
"##tqhACE": 4843,
"##PwHJQK": 4844,
"##pMXFz": 4845,
"MW": 175960,
"dia": 43392,
"##bN": 159874,
"##HQ": 194734,
"##vTNMOa": 4851,
"##IhK": 4852,
"##sImgz": 4853,
"CQQifz": 4854,
"##AGlI": 4855,
"##Ac": 79716,
"qc": 182865,
"##xTqhp": 4858,
"kD": 185276,
"##CtF": 4860,
"Mug": 4861,
"##kvhQlb": 4862,
"eMbIxq": 4863,
"##RRjo": 4864,
"##depfF": 4865,
"##ouSj": 4866,
"fMNkQt": 4867,
"##WOOsz": 4868,
"SBOki": 4869,
"CMh": 4870,
"##jgeFRs": 4871,
"##hs": 186278,
"yZo": 4874,
"##AbIDD": 4875,
"##lJ": 193475,
"##yXcPyj": 4877,
"##jOylrA": 4878,
"##LaHX": 4879,
"##tLFkc": 4881,
"tJih": 4882,
"##PprE": 4883,
"xU": 189520,
"##MpVOrl": 4885,
"TXLIlz": 4886,
"Ggc": 4887,
"##EXcRlH": 4888,
"SJjNZG": 4889,
"##Uvd": 4890,
"##zc": 176697,
"IJW": 4892,
"##th": 154640,
"##utTRV": 4894,
"tu": 187760,
"##EqGpI": 4896,
"##Ka": 194279,
"##SFc": 4898,
"ZQAod": 4899,
"tUiFi": 4900,
"##CS": 173694,
"##uNyTcy": 4902,
"##aBj": 4903,
"##Tp": 186725,
"LdPEg": 4906,
"##vpNABJ": 4907,
"##PF": 194877,
"##ZU": 183475,
"cbWPx": 4910,
"##KxjT": 4911,
"##KYKeH": 4912,
"pj": 194856,
"jMhUT": 4914,
"lgjcSn": 4915,
"##gFcPJL": 4916,
"SxHKK": 4917,
"##BmRXgR": 4918,
"inLN": 4919,
"##XR": 176826,
"StDw": 4921,
"CnjS": 4922,
"##Gda": 4923,
"ywIJMy": 4924,
"##pzlfTI": 4925,
"no": 195835,
"FE": 194277,
"##Nk": 163711,
"Oj": 173389,
"##bwIFTY": 4930,
"jh": 141406,
"##ioGo": 4932,
"Ka": 168139,
"kyEGZ": 4934,
"NYM": 4935,
"kFMTh": 4936,
"SXZaca": 4937,
"##oPrxW": 4938,
"WTHGia": 4939,
"##Zl": 179386,
"##YaIFA": 4941,
"PBxYE": 4942,
"##NSAVK": 4943,
"LAY": 4944,
"AhdW": 4945,
"YJk": 93568,
"vvTcVo": 4948,
"DjTdWe": 4949,
"FDO": 121886,
"fQjoLf": 4951,
"##PhIF": 4952,
"zGm": 4953,
"DNZ": 121357,
"vrT": 20077,
"wa": 189421,
"ta": 188583,
"##wgirS": 4958,
"##CCzM": 4959,
"##lPb": 4960,
"Mdbg": 4961,
"ztVnR": 4962,
"HSktT": 4963,
"##mgWhLp": 4964,
"##xJcT": 4965,
"##iyN": 4966,
"##UCrY": 4967,
"##SePMk": 4968,
"tZmL": 4969,
"##dCVdLX": 4970,
"igaK": 4971,
"hYZ": 4972,
"oZvru": 4973,
"ddedy": 4974,
"hHZGBn": 4975,
"MlZrcQ": 4976,
"##EQKs": 4977,
"##Cbsf": 4978,
"oI": 116108,
"##YZUqm": 4980,
"ubxP": 4982,
"WcXtj": 4983,
"rKpk": 4984,
"KDV": 4985,
"##gF": 146677,
"##tI": 171081,
"##mk": 191538,
"##Bq": 191060,
"nPq": 4990,
"##HJltSb": 4992,
"rYXN": 4993,
"DtsAt": 4994,
"##dZZ": 4995,
"dXrzWF": 4996,
"##ClC": 78912,
"uXbIw": 4998,
"##kzrd": 4999,
"DnIUik": 5000,
"##aQN": 72747,
"##ihCrIO": 5002,
"nVvxdf": 5003,
"##CWv": 5004,
"VLqfQG": 5005,
"##GN": 143598,
"RbOa": 5007,
"##Ngcqb": 5008,
"lfnnz": 5009,
"##UcZ": 5010,
"vi": 172788,
"##bGSvRC": 5012,
"##HQtm": 5013,
"WPO": 5014,
"##UodnA": 5015,
"##Bzm": 5016,
"zrh": 5017,
"sCNSmf": 5018,
"##zZlTL": 5019,
"fqXThH": 5020,
"kAk": 5021,
"##yQGBH": 5022,
"WeJkVe": 5023,
"##MHCDLt": 5024,
"onRy": 5025,
"##YzdOQD": 5026,
"##gYE": 5027,
"XlriNj": 5028,
"##dNyI": 5029,
"##Abwkv": 5030,
"lJzTqT": 5031,
"hPBT": 5032,
"##FZHF": 5033,
"##Ht": 160821,
"Uvz": 5035,
"##GMWhXr": 5036,
"##MCkm": 5037,
"prOsX": 5038,
"##Nf": 131580,
"##ZmBluB": 5040,
"hkV": 5041,
"##uBlZZR": 5042,
"##POuJEg": 5043,
"SVIuH": 5044,
"##RyAl": 5045,
"##qDoPw": 5046,
"##JX": 192187,
"##SZiK": 5048,
"##xI": 190239,
"##tlkH": 5050,
"Rcd": 5051,
"##mmAQ": 5052,
"JoF": 5053,
"##xfqZo": 5054,
"BCn": 5055,
"##Kf": 126312,
"xr": 139706,
"cN": 171168,
"caKLR": 5059,
"##eDWT": 5060,
"##Mh": 145040,
"##BnL": 5062,
"##CM": 194414,
"znGtlt": 5064,
"##yJTcka": 5065,
"##jJlBI": 5066,
"##Suy": 5067,
"##Byi": 5068,
"##LsTrQo": 5069,
"##uYB": 5070,
"vHdM": 5071,
"##FZj": 5072,
"##ZeakJ": 5073,
"PsKM": 5074,
"kQ": 170586,
"ftNnu": 5076,
"##Sjnz": 5077,
"##Lge": 86153,
"##yJbP": 5080,
"##OKCA": 5081,
"##Xdli": 5083,
"EwIwQ": 5084,
"##eiSyC": 5085,
"##MYIoN": 5086,
"##rlo": 70295,
"Xi": 197125,
"##WFop": 5089,
"##Tuv": 5090,
"Bv": 167078,
"jcVU": 5092,
"hSVhFr": 5093,
"QIUSSn": 5094,
"xAwUN": 5095,
"dTevdJ": 5096,
"##bnqDUJ": 5097,
"##bvVrUy": 5098,
"##yTh": 5099,
"lGBL": 5100,
"xRH": 5101,
"##rW": 173914,
"##WaKscA": 5104,
"ZQ": 187933,
"##PwC": 5106,
"mrQgcb": 5107,
"##TT": 120169,
"Txiec": 5109,
"##fDjL": 5110,
"##IRqFD": 5111,
"##laCqv": 5112,
"##ABJkw": 5113,
"bfrvuQ": 5114,
"FsND": 5115,
"Li": 175059,
"##hZWruL": 5117,
"##SIBl": 5118,
"yBM": 5119,
"##cyI": 118783,
"KLE": 5121,
"AxgJ": 5122,
"QRNNou": 5123,
"##Oxb": 5124,
"##wG": 117912,
"##ZNoF": 5126,
"CSOya": 5127,
"##UccUw": 5128,
"##atBVe": 5129,
"##Sgp": 5130,
"##YNFo": 5131,
"##cWNmON": 5132,
"fIpE": 5133,
"eJ": 168839,
"VBGB": 5135,
"##TspXRr": 5136,
"Vi": 159870,
"##VwCW": 5138,
"ZI": 154099,
"##mHH": 5140,
"vYI": 5141,
"##feWa": 5142,
"mbS": 188479,
"##wwg": 5144,
"XvQB": 5145,
"vCifrW": 5146,
"uu": 191395,
"vduJ": 5149,
"qJB": 5150,
"dqyJ": 5151,
"mPnX": 5152,
"##DYmR": 5153,
"qhJDU": 5154,
"MEPU": 5155,
"##VUju": 5156,
"##iSISde": 5157,
"vNezLl": 5158,
"Mgg": 5159,
"##iVwTHt": 5160,
"iLWiSy": 5161,
"##me": 175150,
"ukr": 5163,
"IZ": 176452,
"##yC": 180162,
"##DCg": 5166,
"##nQ": 147042,
"##iBOiXt": 5168,
"Rrwd": 5169,
"##Zjyy": 5170,
"##QXXU": 5171,
"XzeuOV": 5172,
"##rQ": 192966,
"##gyRi": 5174,
"lNuSCG": 5175,
"##hDTlu": 5176,
"##aB": 186451,
"##uAjXN": 5178,
"##nKd": 5179,
"CIEq": 5180,
"QdEDaO": 5181,
"##FNfPYT": 5182,
"##IOa": 5183,
"##lwM": 5184,
"uWcgP": 5185,
"##kAN": 5186,
"pjDCIl": 5187,
"##elsz": 5188,
"##rKuKFN": 5189,
"##VWNYWL": 5190,
"mpUye": 5191,
"##dWf": 146641,
"UF": 167096,
"NM": 198379,
"yy": 195414,
"##ZRtWny": 5196,
"bqPnFQ": 5197,
"##NG": 87234,
"##DXe": 5199,
"##KkrtB": 5200,
"EcFGJ": 5201,
"##kam": 5202,
"GaBynw": 5203,
"##IsbX": 5204,
"##SbuEgA": 5205,
"##YwLNoB": 5206,
"##eWae": 5207,
"lyj": 5208,
"jeTyj": 5209,
"##xzg": 5212,
"##qN": 199414,
"mePFov": 5214,
"GJIvF": 5215,
"##HnlFTO": 5216,
"ZmoJzB": 5217,
"##pTvwbS": 5218,
"oGwkHB": 5219,
"##PqJwW": 5220,
"##ChWPo": 5221,
"sCo": 127312,
"FuNQW": 5223,
"XnV": 5224,
"toi": 5225,
"##pNjgi": 5226,
"mCp": 5227,
"##sEGI": 5228,
"##reDzoh": 5229,
"QexX": 5230,
"##fd": 199932,
"PctvsZ": 5232,
"##AC": 188863,
"pokD": 5235,
"##FVEeCa": 5236,
"DTu": 5237,
"HVYrb": 5238,
"px": 196731,
"##iAI": 5241,
"eps": 5242,
"##YgSR": 5243,
"##wQt": 5245,
"##vJZSz": 5246,
"wItC": 5247,
"##QeiOd": 5248,
"##Fs": 93772,
"jSyx": 5250,
"vHF": 5251,
"##iWvKQ": 5252,
"AztFfI": 5253,
"##yqmjsf": 5254,
"hIVc": 5255,
"##Teu": 5256,
"##ahjj": 5257,
"##op": 173910,
"##YefY": 5260,
"uh": 125819,
"##NnhBUi": 5262,
"FN": 157313,
"##ZNgW": 5264,
"Pdh": 12399,
"Hb": 77868,
"##fowk": 5268,
"Br": 141616,
"DtZhT": 5270,
"##FxPr": 5271,
"dR": 137918,
"##KonJsc": 5273,
"PXkJ": 5274,
"qZby": 5275,
"znr": 5276,
"pmLdq": 5278,
"Pok": 5279,
"##jAJnZ": 5280,
"##ZzhG": 5281,
"ZTH": 5282,
"kKsU": 5283,
"Vqe": 18752,
"##Ft": 180669,
"bF": 162609,
"OMcxnO": 5288,
"dg": 133884,
"##Rgv": 5290,
"qyWIi": 5291,
"jF": 191785,
"aa": 156346,
"ossyzi": 5294,
"##KaJRPI": 5295,
"CqOHQ": 5296,
"wJzH": 5297,
"##Mq": 195186,
"nUPnz": 5299,
"vQwbv": 5300,
"##LpM": 5301,
"##YOvVYW": 5302,
"svqU": 5303,
"EhWI": 5304,
"##rIO": 5306,
"##Xx": 158290,
"xwrd": 5308,
"MFgX": 5309,
"##FhLL": 5310,
"##HMvRkp": 5311,
"OsPzGP": 5312,
"HNyQkk": 5313,
"ChVUtp": 5314,
"##qTz": 5315,
"##fXVwkT": 5316,
"wd": 135837,
"WwU": 5318,
"OnkjA": 5319,
"##irt": 5320,
"YO": 139865,
"yQh": 5322,
"qjlBIc": 5323,
"PdKSD": 5324,
"imYxoy": 5325,
"fPz": 5326,
"##VApV": 5327,
"UVHO": 5328,
"jyTLbd": 5329,
"##gmKek": 5330,
"##is": 137842,
"ymfa": 5332,
"##VuaJdY": 5333,
"##IdwgBY": 5334,
"NGXkzl": 5335,
"##mj": 181957,
"GVWICQ": 5337,
"##HKCZaX": 5338,
"gUJUse": 5339,
"##WEA": 5340,
"ZKEKNu": 5341,
"##iZ": 196441,
"yREgQ": 5343,
"wlhtNl": 5344,
"##LV": 172522,
"oXbtfg": 5346,
"Kuo": 5347,
"##dQ": 190712,
"##pS": 186788,
"IqS": 120512,
"IDnRF": 5351,
"##BCOk": 5352,
"FCNLnL": 5353,
"##maaUoM": 5354,
"##LyJNg": 5355,
"##Xy": 192811,
"gvc": 5357,
"##NqUd": 5358,
"##jYm": 5359,
"##cdCL": 5360,
"niD": 5361,
"##asu": 12166,
"##KPO": 5363,
"tkWa": 5364,
"##akian": 5365,
"nele": 5366,
"##cgDRAa": 5367,
"##yybE": 5368,
"uI": 144533,
"##MUaLB": 5370,
"UdFfHN": 5371,
"GY": 162011,
"alpTr": 5373,
"PYXtH": 5374,
"##Ocbym": 5375,
"##tEkzaP": 5376,
"##jM": 126974,
"##kh": 195669,
"##VuHuG": 5379,
"##KyA": 5380,
"ZNW": 5381,
"pZT": 5383,
"tBnyE": 5384,
"##hGHUQ": 5385,
"##xWE": 5386,
"##ooC": 5387,
"##XyIBbq": 5388,
"OHBh": 5389,
"##Wd": 191412,
"##MpLsT": 5391,
"##cTSqU": 5392,
"OLbFQk": 5393,
"##Pwj": 153116,
"RE": 163773,
"##nN": 179924,
"zhO": 5397,
"giSvB": 5398,
"qq": 132388,
"gKBHST": 5400,
"##mV": 145809,
"##ep": 183510,
"xnq": 5403,
"lMEyN": 5404,
"rpsi": 5405,
"##gRGMpt": 5406,
"yfX": 5407,
"##hjjrYn": 5408,
"##fhy": 5409,
"##PmLK": 5410,
"##LoYro": 5411,
"wGHTBk": 5412,
"dsJE": 5413,
"uHlIEJ": 5414,
"DX": 120024,
"mUQYW": 5416,
"##wDh": 5417,
"##sffcA": 5418,
"cYzy": 5419,
"DctUn": 5420,
"##DePPDU": 5421,
"##GyX": 5422,
"##OBZD": 5423,
"##eqSK": 5424,
"roKaG": 5425,
"ns": 183548,
"##DOgAP": 5427,
"##cznNh": 5428,
"KzqI": 5429,
"##YNB": 5430,
"##wJZCQ": 5431,
"QB": 183661,
"##PudTxd": 5433,
"hVZi": 5434,
"Hej": 5435,
"##TiCVdo": 5436,
"##fRkHKM": 5437,
"yl": 197475,
"QTMgr": 5439,
"##na": 194912,
"##YEGrqH": 5441,
"ayka": 5443,
"yZOEV": 5444,
"##ZJmQuy": 5445,
"##mymzS": 5446,
"zkSn": 5447,
"##wNxr": 5448,
"##wsuRmW": 5449,
"##mVAZ": 5450,
"##zuEL": 5452,
"##tzIYA": 5453,
"qng": 5454,
"wA": 199594,
"##okvP": 5456,
"yjj": 5457,
"##DA": 141506,
"tSg": 5459,
"pkek": 5460,
"##axmvJ": 5461,
"iDqATT": 5462,
"##IRwhqq": 5463,
"##KnLybp": 5464,
"##vMwIBo": 5465,
"##OGbaSM": 5466,
"dYtq": 5467,
"Tev": 5468,
"##nPTO": 5469,
"RhNS": 5470,
"UVV": 5471,
"##YxPVPM": 5472,
"Nysy": 5473,
"##OsNO": 5474,
"##Ok": 142625,
"PP": 193230,
"Ypy": 5477,
"##CCdCbJ": 5478,
"##ZNa": 5479,
"TFriJ": 5480,
"##IP": 173628,
"WQ": 196085,
"##QJH": 5483,
"##lFkcfA": 5484,
"##qM": 170968,
"##oFkEMp": 5486,
"KvaT": 5487,
"##ni": 169326,
"RpKG": 5489,
"##xwHMR": 5490,
"qIcZgL": 5491,
"rvgs": 5492,
"WO": 165453,
"##SfofSv": 5494,
"##FDhT": 5495,
"Hhv": 5496,
"Ja": 193004,
"##Pup": 5499,
"vRBqe": 5500,
"KVCbub": 5501,
"cOQXR": 5502,
"##DUiy": 5505,
"##YNyID": 5506,
"kZLd": 5507,
"##yFrocD": 5508,
"##JvB": 5509,
"RsWMle": 5511,
"##BzOd": 5512,
"RpPMPK": 5513,
"##zK": 195847,
"irYM": 5515,
"##fjyX": 5516,
"xHZAs": 5517,
"hz": 170855,
"IMrwpv": 5519,
"##WDvE": 5520,
"##poIug": 5522,
"##LNZyU": 5523,
"##pX": 159669,
"##fNOJYr": 5525,
"MIJfLx": 5527,
"BTtN": 5528,
"VSej": 5529,
"kJ": 146769,
"WDtiL": 5531,
"Qpxl": 5532,
"##nSGNG": 5533,
"##krHXH": 5534,
"hEqAA": 5535,
"##HaxeKz": 5536,
"QcoBL": 5538,
"##FPX": 5539,
"##qvdJTj": 5540,
"qWiA": 5541,
"##jQaFn": 5542,
"##fyDxb": 5543,
"##AKhcIk": 5544,
"MB": 182333,
"##zVH": 14940,
"bgX": 5548,
"HCCYRU": 5549,
"vVh": 5550,
"aY": 183982,
"##cvzxoL": 5552,
"##xVSElT": 5553,
"##DXHI": 5554,
"iHrlF": 5555,
"ST": 196469,
"jhwk": 5557,
"MUkYA": 5558,
"nB": 175338,
"ehs": 5560,
"##Lt": 189896,
"##FMsME": 5562,
"##nD": 187081,
"HDBhF": 5564,
"KgGLq": 5565,
"SWVy": 5566,
"##supm": 5567,
"##gKsPM": 5568,
"yteEZ": 5569,
"rPYN": 5570,
"EVv": 5571,
"##Fk": 152940,
"OQ": 183478,
"ufJHe": 5574,
"##rYZR": 5575,
"hPo": 5576,
"##rsT": 5577,
"ji": 197067,
"##AdQ": 90563,
"##zISHX": 5580,
"tfA": 5581,
"au": 194583,
"DutYP": 5583,
"hMmRw": 5585,
"GEpN": 5586,
"##tUTEyz": 5587,
"##psidVg": 5588,
"Wzq": 5589,
"fSC": 5590,
"##Yd": 111593,
"##cpxKTG": 5593,
"##qnmSB": 5594,
"VBF": 51800,
"##jBy": 5596,
"##CJ": 187908,
"nEsXFK": 5598,
"##UgJ": 5599,
"##znW": 5600,
"##qsGr": 5602,
"KmK": 5603,
"##QY": 189488,
"##hcmHTE": 5606,
"EFIPe": 5607,
"##Kq": 145711,
"##Fds": 5609,
"##dhJJA": 5610,
"SXB": 66509,
"##dx": 164641,
"Ppg": 5613,
"##VX": 196594,
"##kghv": 5615,
"IDgcj": 5616,
"##zZ": 151956,
"IKvP": 5618,
"##wqQv": 5619,
"oyVaUr": 5620,
"##CCzU": 5622,
"##ggrX": 5623,
"SAtgZ": 5624,
"##OZ": 163149,
"NEWOX": 5626,
"aJt": 5628,
"##DZr": 5629,
"UrbBuR": 5630,
"##ftFGDg": 5631,
"rnZ": 5632,
"##NfWRhD": 5633,
"##kVeCld": 5634,
"##cePJIn": 5635,
"qK": 192728,
"bMYV": 5637,
"##eRMW": 5638,
"##zqORkZ": 5639,
"UHWf": 5640,
"kUte": 5641,
"##dJQ": 5643,
"##McM": 5644,
"##wb": 163224,
"##Yxe": 5646,
"aBWa": 5647,
"##Bot": 5648,
"yZbyB": 5649,
"##MCVVi": 5650,
"##RMepGZ": 5651,
"##VYcK": 5652,
"HzY": 5653,
"AnmXmq": 5654,
"##XnWO": 5655,
"Ee": 184765,
"lx": 199792,
"ftjMR": 5658,
"##MakWJM": 5659,
"YsYp": 5660,
"QUq": 113617,
"Ft": 171403,
"##wkxg": 5663,
"##yej": 5664,
"lCWK": 5665,
"##ATcqtY": 5666,
"##xw": 195302,
"##tk": 196038,
"##rA": 190877,
"ioR": 5670,
"##ZfJyT": 5671,
"aeDULz": 5672,
"cCBBx": 5673,
"##fOwxPS": 5674,
"##ERZh": 5675,
"##kvP": 5677,
"HvkZt": 5678,
"nCxi": 5679,
"IKir": 5680,
"##GZa": 5681,
"##SO": 185523,
"##Jx": 189874,
"##Xnl": 5684,
"OK": 117724,
"##ptUSJ": 5687,
"##dPeeer": 5688,
"##wI": 145449,
"grgJyM": 5690,
"##XScz": 5691,
"##ReVI": 5692,
"bsCfvG": 5693,
"nSGOh": 5694,
"viAjhU": 5695,
"wJuB": 5696,
"eO": 188836,
"AtAF": 5698,
"Ld": 179913,
"##XT": 180200,
"vmvsIY": 5701,
"##KA": 175658,
"##ru": 187445,
"##hM": 157843,
"pyZI": 5705,
"##EYx": 5706,
"##FGa": 5707,
"Inqhif": 5708,
"##XUeS": 5709,
"##MHucZP": 5710,
"tPH": 5711,
"##Nm": 144275,
"GorV": 5713,
"##wxvHU": 5714,
"jZwdPM": 5715,
"qJDOk": 5716,
"##OibAed": 5717,
"rPay": 5718,
"FOpc": 5719,
"xtj": 5720,
"vsbA": 5721,
"##uUuRRr": 5722,
"gRdMZY": 5723,
"##YCk": 5724,
"##dMgz": 5725,
"##WyKkP": 5726,
"##XtepN": 5727,
"##MR": 189424,
"##obc": 5729,
"Rm": 125548,
"##SgLz": 5731,
"Nbh": 5732,
"##VXPocz": 5733,
"QSUXMO": 5734,
"ZKgS": 5735,
"npKAN": 5736,
"##qWIR": 5737,
"ehsHO": 5738,
"##AANt": 5739,
"##kadRX": 5740,
"##ac": 189262,
"##ZP": 186415,
"##AFSTT": 5743,
"IAF": 5745,
"##PDqHa": 5746,
"XpN": 5747,
"EFIHSl": 5748,
"##RL": 187551,
"LjzfB": 5750,
"HGNRX": 5751,
"ub": 171670,
"##lKiRs": 5753,
"wfLT": 5754,
"##lDldpl": 5755,
"##ef": 190992,
"##EpDc": 5757,
"##xp": 193265,
"##novuJ": 5759,
"##MyCFMv": 5760,
"##dLW": 153035,
"##NoJgt": 5762,
"##Cjcf": 5763,
"Pqq": 5764,
"TixYG": 5767,
"##ZZAlAX": 5768,
"pyl": 5769,
"##NrCk": 5770,
"##ykivw": 5771,
"##PTPwt": 5772,
"##ULWwdk": 5773,
"QtHd": 5774,
"ANhUm": 5775,
"##KWDu": 5776,
"##ZHlA": 5777,
"cSbD": 5778,
"##oqBwQ": 5779,
"TSo": 5780,
"cQoUU": 5781,
"Swr": 5782,
"##stPC": 5783,
"yNAnkz": 5784,
"##TYannQ": 5785,
"uUr": 5786,
"##LnX": 5787,
"##Mkm": 5788,
"##Hm": 187219,
"##gtdk": 5790,
"##rPL": 5791,
"eHnwr": 5792,
"aQ": 171025,
"Zz": 152346,
"ov": 196172,
"POoY": 5796,
"NnIhGF": 5797,
"kPpDs": 5798,
"QKuo": 5799,
"##WkvY": 5800,
"##xtXAno": 5801,
"XLFnDa": 5803,
"xkmeo": 5804,
"Ovr": 5805,
"##Rxw": 5806,
"##Ry": 147516,
"VSFrq": 5808,
"##UrjX": 5809,
"ZLNO": 5810,
"FY": 99725,
"##Sidd": 5812,
"yJvlPK": 5813,
"jzW": 5814,
"##oJFi": 5815,
"wvZm": 5816,
"vwxP": 5817,
"rrRU": 5818,
"##LpEu": 5819,
"kbkRwF": 5820,
"GdoXb": 5821,
"GCrDp": 5822,
"##TMBV": 5823,
"UayPXK": 5824,
"##SRhBtp": 5825,
"##ON": 179637,
"IFUCd": 5827,
"egzl": 5828,
"imm": 5829,
"##pR": 197260,
"RuqH": 5831,
"##uTbPaJ": 5832,
"uMvus": 5833,
"##yBBZe": 5834,
"Fhaq": 5835,
"WqfjQe": 5836,
"en": 71999,
"xx": 199438,
"##qKMGKW": 5839,
"##mFgZU": 5840,
"##XwRK": 5841,
"Grb": 5842,
"ImO": 5843,
"##qoSN": 5844,
"AuE": 5845,
"##yMmy": 5846,
"##lhyRri": 5847,
"##Esn": 116510,
"##DuQx": 5849,
"Ar": 105126,
"qxnjR": 5851,
"##gj": 162951,
"jXvk": 5853,
"sdRP": 5854,
"##xmyv": 5855,
"cS": 184536,
"NzlZG": 5857,
"##ij": 97556,
"nbtR": 5859,
"oUe": 5860,
"mC": 184675,
"RLm": 5862,
"##PMiYGF": 5863,
"##BTmt": 5864,
"RmdAK": 5865,
"ea": 143172,
"##PO": 170999,
"yUA": 68549,
"##JSVXm": 5869,
"##sfhgWR": 5870,
"Xn": 196763,
"##OYYQdL": 5872,
"##PT": 195666,
"nvUX": 5874,
"##yoeNO": 5875,
"##UELVd": 5876,
"##BongO": 5877,
"UierIZ": 5879,
"CGhkQg": 5880,
"OewOu": 5881,
"HHKNq": 5882,
"ePxAv": 5883,
"##muQE": 5885,
"kMRqS": 5886,
"eVN": 5887,
"QCzkf": 5888,
"ztlMrX": 5889,
"##wehJ": 5890,
"##MutMlO": 5891,
"##yfHBrU": 5892,
"kCG": 5893,
"RdZvUF": 5895,
"##CDbds": 5896,
"##bfZ": 5897,
"LTK": 5898,
"QnNWa": 5899,
"bldv": 5900,
"##VzGMt": 5901,
"##ubr": 5902,
"##AXc": 11092,
"##HD": 169362,
"##RtQxuu": 5905,
"##SNX": 5906,
"##xVlF": 5907,
"xp": 145356,
"##Dm": 195823,
"JXHV": 5910,
"RRmuY": 5911,
"##XaHlJ": 5912,
"##BR": 163145,
"##VBQFUN": 5914,
"##ziNTD": 5915,
"##Bx": 181090,
"vLRDsK": 5917,
"eIYM": 5918,
"qLc": 5919,
"##Bb": 185655,
"##jXCFCf": 5922,
"##gUV": 5923,
"uihFcy": 5924,
"##mEDU": 5925,
"ijRTeL": 5926,
"##lVfBg": 5927,
"eMbo": 5928,
"JZB": 5929,
"##RpWMY": 5930,
"##XEf": 5931,
"##oF": 195037,
"##kvXRuv": 5933,
"##BivuXE": 5934,
"LIsYOr": 5936,
"##INGRuO": 5937,
"ySdS": 5938,
"GSHH": 5939,
"##dgO": 5940,
"eOEmYX": 5941,
"##iVdAT": 5942,
"CngR": 5943,
"PwY": 5944,
"sJlo": 5945,
"##vlmx": 5946,
"##Hx": 140443,
"gJp": 5948,
"##mlgtj": 5949,
"##luHW": 5950,
"Maxi": 5951,
"vc": 185805,
"qmBz": 5953,
"##OcwdGP": 5954,
"DmHJ": 5955,
"gGLpI": 5956,
"jklUf": 5957,
"uevAL": 5958,
"vViW": 5960,
"LYrmlm": 5961,
"yDUv": 5962,
"##JJ": 185710,
"CKSEa": 5964,
"##iyfHq": 5965,
"##lkGCFS": 5966,
"##HVqWp": 5967,
"##Vgpkk": 5968,
"##hrz": 5969,
"pnTQ": 5970,
"AMq": 5971,
"##sZm": 5972,
"##QjEQQV": 5973,
"pnFn": 5974,
"##wwff": 5975,
"##pr": 183828,
"QjQxF": 5977,
"##laU": 5978,
"##oV": 192553,
"##jjlp": 5980,
"##NTD": 190376,
"TNfQHi": 5982,
"RgVw": 5983,
"rZca": 5984,
"RCbk": 5985,
"##ZWex": 5986,
"kv": 77548,
"MHjy": 5988,
"pVfxcJ": 5989,
"haWbED": 5990,
"##xM": 135876,
"##JfxwfO": 5992,
"ZtAov": 5993,
"oOui": 5994,
"##mXK": 5995,
"Ptdt": 5996,
"##hrPsiA": 5997,
"##Hfou": 5998,
"bZg": 6000,
"NNv": 6001,
"##JCe": 6002,
"##ZR": 196425,
"##RGih": 6004,
"wh": 182266,
"##my": 195482,
"pKHuW": 6007,
"MGwaM": 6008,
"jJTe": 6009,
"##kXao": 6010,
"ZIBM": 6011,
"##qTU": 6012,
"ZkZmsS": 6013,
"CpnOm": 6014,
"##lXN": 6015,
"YZrQrU": 6016,
"##wSI": 6018,
"kbFt": 6019,
"##FVzkQT": 6020,
"tSQu": 6021,
"bhupwK": 6022,
"iLetZ": 6023,
"##qKY": 6024,
"##zq": 90366,
"ote": 6026,
"XDngAG": 6027,
"pPUzlv": 6028,
"##BikMx": 6029,
"RrN": 6030,
"##RACc": 6031,
"##pLuJ": 6032,
"##cMESIK": 6033,
"KDIR": 6034,
"egt": 6035,
"##hoN": 6036,
"Mai": 6037,
"KIDAz": 6038,
"##NsN": 6039,
"##ZGaH": 6040,
"##TLfQ": 6041,
"GqQmc": 6042,
"##BomRDT": 6043,
"AGkAMg": 6044,
"##vn": 197707,
"##FgJ": 6046,
"VZQsAB": 6047,
"Lb": 160617,
"TaCsH": 6049,
"jvKQH": 6050,
"##zFd": 6051,
"##SRg": 6052,
"tjSid": 6053,
"##DQmCC": 6054,
"cGEee": 6055,
"sPVW": 6056,
"##zf": 182769,
"##USUE": 6058,
"zAREhe": 6059,
"CMDr": 6060,
"lFLPZO": 6061,
"SNm": 6062,
"##Fib": 6063,
"##BLZsJ": 6064,
"LGKziU": 6065,
"NL": 190209,
"anrBJ": 6067,
"wQgITD": 6068,
"jVx": 6069,
"##WyokyI": 6070,
"##JRRul": 6071,
"cBxKve": 6073,
"QkQVWq": 6074,
"JZ": 189335,
"FpeARD": 6076,
"zeNAC": 6077,
"##kgBCy": 6078,
"ZBHq": 6079,
"nOGMub": 6080,
"SueE": 6081,
"Tfi": 95602,
"rXYvRx": 6083,
"ZIG": 6084,
"##YEz": 146975,
"##ixJ": 6086,
"ZZ": 171330,
"TwvI": 6089,
"gRx": 6090,
"##pvbOd": 6091,
"mn": 158317,
"##Lk": 131009,
"##IuiC": 6094,
"##ariCck": 6096,
"##WgRPz": 6097,
"##JIJurW": 6098,
"HOkKo": 6099,
"FGxwol": 6100,
"ykR": 6101,
"imo": 6102,
"ga": 119083,
"##Fjp": 6104,
"pJmu": 6106,
"##kfUtqe": 6107,
"YCbee": 6108,
"FkCpAF": 6109,
"pUhlQs": 6110,
"##vra": 6111,
"##Eeivo": 6113,
"##Zo": 178844,
"ehtnuj": 6115,
"##FubZw": 6116,
"DIk": 42270,
"Jal": 6118,
"CCGpYP": 6119,
"NY": 199432,
"##lcNwwv": 6121,
"ihPB": 6122,
"DXlIAw": 6123,
"BjBFZC": 6124,
"##zKy": 6125,
"##pWfg": 6126,
"HPnY": 6127,
"##bA": 145523,
"##HMf": 6129,
"uWlH": 6130,
"hDWnAT": 6131,
"oBa": 6132,
"##tu": 185221,
"SSjnkk": 6134,
"##kGQ": 6135,
"##nhbn": 6136,
"##gqxmrl": 6137,
"BOv": 6138,
"##qpxsX": 6139,
"BvJ": 6140,
"ZfMLI": 6141,
"##EoFRRK": 6142,
"##zgvN": 6143,
"HoaSa": 6144,
"##UgDEY": 6145,
"Bd": 193111,
"##rzE": 6147,
"##bdo": 6148,
"RVxjtZ": 6149,
"##Dj": 198707,
"pm": 179698,
"##vExEa": 6154,
"BQJlx": 6155,
"tRDz": 6156,
"MkAcIl": 6157,
"aozgF": 6158,
"Tk": 190696,
"##yMTPWt": 6160,
"##QXjh": 6161,
"##QdRqvC": 6162,
"Jtfnhr": 6163,
"HLg": 6164,
"##cJjc": 6165,
"zjFZo": 6166,
"##QAFXtS": 6167,
"Hy": 175188,
"ibdvfj": 6169,
"kPHy": 6170,
"##IKaIs": 6171,
"Mx": 196119,
"syZS": 6173,
"##EmfJlg": 6174,
"##Lghzy": 6175,
"##ZroZ": 6176,
"XWwJld": 6177,
"jE": 199575,
"##Hf": 196705,
"##hu": 163361,
"CRzM": 6181,
"qYrxI": 6182,
"BA": 197827,
"xccZir": 6184,
"##KkUT": 6185,
"Mh": 191076,
"bUQKz": 6187,
"##xaq": 6188,
"OV": 197252,
"umuSXq": 6190,
"##kkGcy": 6191,
"aoh": 6192,
"##OWfT": 6193,
"##cfx": 6194,
"mW": 158889,
"vjTl": 6196,
"mOsoL": 6197,
"##EwAR": 6198,
"eXnY": 6199,
"mwXt": 6200,
"NZ": 193718,
"Nxnr": 6202,
"IdxQ": 6203,
"dD": 107351,
"ufLlh": 6205,
"##qIJRsc": 6206,
"MGm": 6207,
"##lti": 6208,
"##kHX": 6209,
"RGVR": 6210,
"##boxmiu": 6211,
"ONvGEa": 6212,
"ZBpC": 6213,
"VAnDI": 6214,
"##QIeORf": 6215,
"qy": 189396,
"##dRfv": 6217,
"##LcSFs": 6218,
"##DXS": 6219,
"Xl": 191566,
"cLprrX": 6221,
"##uEpRkb": 6222,
"##HsZ": 6223,
"NtG": 6224,
"##VxWgnG": 6225,
"LOpRH": 6226,
"##Ul": 175941,
"##vHVTb": 6229,
"##hT": 162533,
"Jdg": 6231,
"##ipUiea": 6232,
"gWgCPs": 6233,
"##xA": 192294,
"##AV": 194032,
"##PURr": 6236,
"##ILcuV": 6237,
"Bn": 140227,
"AIPGfC": 6240,
"vvTeJ": 6241,
"##jNyVKo": 6242,
"qKUNu": 6243,
"Uv": 194412,
"##VtnP": 6245,
"##zbrss": 6246,
"sLakI": 6247,
"WNz": 6248,
"udwJI": 6249,
"##xC": 170969,
"Vk": 160898,
"PRV": 6252,
"##GZk": 6253,
"dImu": 6254,
"##ASP": 6255,
"PoAMzx": 6256,
"jfNlUs": 6257,
"aD": 195141,
"##aK": 161785,
"##cPCNQ": 6261,
"##zNLYC": 6262,
"OgTOo": 6263,
"ks": 178608,
"sMZ": 6265,
"##aqXm": 6266,
"##zVRhg": 6267,
"kLIgVS": 6268,
"##gu": 178961,
"wZsJ": 6270,
"##txq": 6271,
"##SVy": 6273,
"##oMu": 6274,
"zwGS": 6275,
"##fBDK": 6276,
"##Ohdeoy": 6277,
"iKeMnJ": 6278,
"##dSf": 6279,
"##zuHhm": 6280,
"##FHeLc": 6281,
"gkklm": 6282,
"##fAc": 19463,
"##TTzAAN": 6284,
"##zjQel": 6285,
"CKOSgJ": 6287,
"##jwASNE": 6288,
"##jz": 171228,
"##FPwpB": 6291,
"OwdDDh": 6292,
"##UpquUD": 6293,
"##pG": 145840,
"##TLCPT": 6295,
"##yg": 164807,
"LHqO": 6298,
"##NoCtvr": 6299,
"##JaQH": 6300,
"eI": 157955,
"zH": 187079,
"##IHh": 6303,
"xlXLwo": 6304,
"##vuF": 6305,
"oSMvE": 6306,
"ug": 134019,
"eVeVf": 6308,
"UwGq": 6309,
"CzMX": 6310,
"##MtDT": 6311,
"##UcsihE": 6312,
"tou": 6314,
"nlLcY": 6315,
"##BESWW": 6316,
"##AyfTs": 6317,
"##BnX": 6318,
"##we": 157969,
"SBqG": 6320,
"##rUe": 6321,
"TreRRt": 6322,
"zGnp": 6323,
"Bq": 198121,
"sFhI": 6325,
"asLhpm": 6326,
"GhdjH": 6327,
"##iM": 182160,
"##HfK": 6329,
"TXnnA": 6330,
"qNe": 6331,
"SVrL": 6332,
"##aOp": 176229,
"##ohPZIx": 6334,
"UXH": 6335,
"xLsgYB": 6336,
"##BpTQ": 6337,
"##vJFpDk": 6338,
"##FgL": 6339,
"##skvp": 6340,
"EPl": 6341,
"mRUtFA": 6342,
"XLOX": 6343,
"##tds": 6344,
"##db": 182665,
"rwBlU": 6347,
"##rfbD": 6348,
"tlvJMm": 6349,
"##LCP": 6350,
"uJbYc": 6351,
"##oZKLas": 6352,
"iuqoc": 6353,
"juMt": 6354,
"##HqFp": 6355,
"NJPIEg": 6356,
"QUIA": 6357,
"##kFOd": 6358,
"Ouk": 6359,
"##sixhXJ": 6360,
"LSf": 6361,
"##lEkUva": 6362,
"##yL": 170887,
"WPf": 6364,
"BCHvhD": 6365,
"bNy": 6366,
"##yrvr": 6367,
"Pykal": 6368,
"##HLOsYf": 6369,
"##hJMt": 6370,
"SY": 188154,
"##SLLi": 6372,
"kiy": 6373,
"aSjKTu": 6374,
"##zgYjp": 6375,
"##ZO": 162570,
"uHWK": 6377,
"VaN": 138534,
"##qX": 174294,
"KBdSc": 6380,
"##BGte": 6381,
"nICWnW": 6382,
"XVRBN": 6383,
"Gj": 161607,
"##yjjk": 6385,
"##WYG": 6386,
"ct": 162755,
"UILWq": 6388,
"sO": 174854,
"pMAUS": 6390,
"hfzkTa": 6391,
"##IzgpcN": 6392,
"OCicEo": 6393,
"##tLd": 6394,
"##MKTxo": 6395,
"Oc": 194622,
"##EqO": 6398,
"WnNIqY": 6399,
"##AEkpMs": 6400,
"qHejjM": 6401,
"##MzKnUz": 6402,
"myrMm": 6403,
"##CbJqeP": 6404,
"dcPJF": 6405,
"##nJAlG": 6406,
"Gupa": 6407,
"##hBS": 6408,
"##HxDQ": 6409,
"PA": 190663,
"##PI": 188353,
"qTCTNB": 6412,
"OlLfZ": 6413,
"MqEawO": 6414,
"##Isrv": 6416,
"FiiGC": 6417,
"##EOh": 6418,
"##qIg": 6419,
"##KatWn": 6420,
"##Adf": 100149,
"##em": 180221,
"zVl": 6423,
"##FEs": 6424,
"##fqQkVg": 6425,
"KA": 174219,
"TSidCZ": 6427,
"##Vox": 105821,
"vKt": 6429,
"##gZYtc": 6431,
"OZdsh": 6432,
"vKf": 6433,
"##zVuMZB": 6435,
"##CkyJ": 6436,
"JgIN": 6437,
"##Lu": 183634,
"##CFMWk": 6439,
"fUT": 6440,
"##qwpkP": 6441,
"TlmFC": 6442,
"cM": 187316,
"##PAV": 6444,
"Lgz": 6445,
"##Yu": 166543,
"##ynWxd": 6447,
"iAsQ": 6449,
"##SmqO": 6450,
"##BVP": 107876,
"##AvyE": 6452,
"zeIn": 6453,
"imK": 6454,
"cYYJ": 6455,
"##ZFuQ": 6456,
"##yqB": 6457,
"##PN": 199545,
"##TApu": 6459,
"hMSnEa": 6460,
"TRrMPK": 6461,
"##aHhqBl": 6462,
"Pj": 198065,
"##YY": 186857,
"##zmnVO": 6465,
"##SexII": 6466,
"##PwdF": 6467,
"ncXZ": 6468,
"##dmwT": 6469,
"##TvqbxG": 6470,
"FDkUhP": 6471,
"NiUy": 6472,
"##TIVqSf": 6473,
"TYUbU": 6474,
"RpGi": 6475,
"DGqZ": 6476,
"##cqJiLA": 6477,
"TdiITZ": 6478,
"##mPELKQ": 6479,
"QXY": 6480,
"BHnfm": 6481,
"##XrNNg": 6482,
"##zty": 6483,
"Zw": 181187,
"##weXTQ": 6485,
"dECaMQ": 6487,
"##sFaF": 6488,
"bEz": 6489,
"##qB": 189853,
"##vCZ": 6491,
"##kPlM": 6492,
"ZckSJ": 6493,
"##WMQ": 6494,
"##TJ": 163326,
"hFj": 6496,
"MCE": 6497,
"zAQh": 6498,
"##JErZ": 6499,
"##maLhNu": 6500,
"nUw": 6501,
"JPX": 6502,
"DeQw": 6503,
"tnVf": 6504,
"iETtXr": 6505,
"##cKzhJB": 6506,
"bT": 152054,
"mvA": 147646,
"GURK": 6509,
"KjiuK": 6510,
"##zs": 141349,
"##gfNKhZ": 6513,
"##BCN": 6514,
"##RNGKY": 6515,
"FTnbyc": 6516,
"RW": 193747,
"##BnWIY": 6518,
"##dEqE": 6520,
"##QKfbDa": 6521,
"##gdm": 6522,
"##nI": 192766,
"st": 195053,
"rkRj": 6525,
"GoOw": 6526,
"QVhse": 6527,
"##pryXo": 6528,
"zGkqk": 6529,
"##pIbB": 6530,
"vlxZu": 6531,
"EEtvV": 6532,
"##jlK": 6534,
"HDWT": 6535,
"Uc": 187716,
"##fuZSHt": 6537,
"qxsXib": 6538,
"gyfU": 6539,
"DB": 189024,
"##oWo": 6541,
"EpE": 6542,
"JRK": 6543,
"##DtTepM": 6544,
"##FsttM": 6545,
"##hWHEpW": 6546,
"WhGF": 6547,
"jiviKi": 6548,
"##OisGXZ": 6549,
"LLkyr": 6550,
"##WYCoIL": 6551,
"##LSqhQm": 6552,
"##MVvkt": 6553,
"yHTlL": 6554,
"zI": 197917,
"LWTr": 6556,
"azzR": 6557,
"VwS": 6558,
"EisIy": 6559,
"RcOrUF": 6560,
"Nqp": 6561,
"UTZ": 6562,
"ufn": 6563,
"##qzrW": 6564,
"XkLIpF": 6565,
"ab": 176878,
"##Paj": 6567,
"PGl": 125981,
"gLtz": 6569,
"##SWGmwP": 6570,
"sN": 195990,
"##dp": 190339,
"ss": 193154,
"FfuwOB": 6574,
"##LXoz": 6575,
"KPNJMo": 6576,
"dZlKE": 6577,
"RVT": 6578,
"eODRkh": 6579,
"LmLhzk": 6580,
"SxAfXS": 6581,
"OChX": 6582,
"##UVY": 16761,
"Dx": 150681,
"##wgXk": 6586,
"##yb": 199418,
"HmfI": 6588,
"Sb": 179071,
"Hpxc": 6590,
"vV": 148977,
"##pHPiCt": 6592,
"MM": 166337,
"nqD": 6594,
"##fiZ": 6595,
"##JAR": 6596,
"rdpY": 6597,
"WcPGq": 6598,
"##IIV": 6599,
"eh": 189911,
"FAFMlu": 6601,
"##vhVg": 6602,
"##pFm": 6603,
"##RSMt": 6604,
"##Ep": 123241,
"vRKa": 6606,
"##ZWpX": 6607,
"vL": 170914,
"Rf": 197776,
"##sAUY": 6610,
"TM": 184192,
"KdqDIx": 6612,
"waGg": 6613,
"cXnGGe": 6614,
"##Dasc": 6615,
"LWE": 6616,
"##Yttmo": 6617,
"NrOxy": 6618,
"WWWDC": 6619,
"##Nb": 196623,
"HSHN": 6621,
"##lrE": 6622,
"##kyc": 6623,
"##xrrWP": 6624,
"##xYXfKS": 6625,
"lODf": 6626,
"HUr": 6627,
"zfzf": 6628,
"##fGF": 6629,
"##yt": 141870,
"FXKSc": 6631,
"##CjGbs": 6632,
"RMbH": 6633,
"##qfpdvb": 6634,
"##tACmF": 6635,
"bp": 171432,
"xH": 112170,
"DPzL": 6638,
"##AucQ": 6639,
"Fgb": 6640,
"##kUK": 6641,
"##Qpi": 6642,
"iPO": 116648,
"FYUVoO": 6644,
"##DvrIe": 6645,
"##qpY": 198048,
"##ieSNKo": 6647,
"##JHyxJf": 6648,
"aLflnu": 6649,
"##KYxk": 6650,
"tP": 150961,
"feP": 6652,
"gn": 197357,
"##AApVJ": 6654,
"##GwVfge": 6655,
"nZEyYv": 6656,
"TI": 188564,
"To": 171014,
"nSSwW": 6659,
"tDEba": 6660,
"##GwRhYV": 6661,
"##XaEi": 6662,
"SLZwO": 6663,
"##jWBO": 6664,
"LXpI": 6665,
"##UjW": 6666,
"##yi": 194394,
"SWdyh": 6668,
"jrlO": 6669,
"##wanFUr": 6670,
"##VRdXSd": 6671,
"EvkaNY": 6672,
"NwoYgA": 6673,
"VDfR": 6674,
"##GmLYJ": 6675,
"ZGD": 6676,
"##qLf": 6678,
"Oa": 141895,
"##CHHNQ": 6680,
"mAOX": 6681,
"##ruQnVi": 6682,
"SfQ": 26912,
"Uihr": 6684,
"Fv": 199698,
"iK": 159932,
"kg": 172870,
"##UTMp": 6689,
"DPBxRN": 6690,
"##fmOet": 6691,
"xeG": 6692,
"##XccqG": 6693,
"dmAlW": 6694,
"HvEvlg": 6695,
"##Sr": 168845,
"aav": 6697,
"##mGTnH": 6698,
"uHSJu": 6699,
"##tCgaD": 6700,
"sAH": 6701,
"##nvawSp": 6702,
"##iwY": 6703,
"##FQQ": 6704,
"##mAKu": 6705,
"AFryK": 6706,
"NmccI": 6707,
"##gljFz": 6708,
"##KBeaq": 6709,
"##TR": 174822,
"##rdmzBD": 6711,
"IteLGb": 6712,
"##tuK": 6713,
"Qfy": 6714,
"tvqMH": 6715,
"##tPCIMd": 6716,
"OqQVTw": 6718,
"##bCq": 6719,
"##CVRCj": 6720,
"kwBv": 6721,
"DzaREh": 6722,
"VvLcY": 6723,
"##NOpP": 6724,
"##klBN": 6725,
"##eiOfY": 6726,
"KhAPP": 6727,
"cZyqL": 6728,
"##GPEk": 6729,
"##KmQ": 6730,
"##pYZT": 6731,
"jix": 6732,
"##NfmJL": 6733,
"##sTiXm": 6734,
"MQX": 6735,
"QnYncl": 6736,
"##Phi": 105659,
"sz": 177485,
"yVBA": 6739,
"SCcTc": 6740,
"##IXi": 6741,
"##exnO": 6742,
"iDjOcF": 6743,
"##NafbPw": 6744,
"##uIRY": 6746,
"QrNt": 6747,
"KyqGX": 6748,
"##fQH": 6749,
"fAIo": 6751,
"##zsPD": 6752,
"WhAj": 6753,
"dCw": 6754,
"avtBMm": 6755,
"WRwc": 6756,
"##iBwpv": 6758,
"NJVl": 6759,
"qLY": 6760,
"sJFSAv": 6761,
"IdiqFn": 6762,
"##JRZM": 6763,
"ZLJ": 6764,
"##pzpQdy": 6765,
"AMCn": 6766,
"##eoEfs": 6767,
"##REisbB": 6768,
"hALynA": 6769,
"hu": 174063,
"KWARr": 6771,
"##YPke": 6772,
"AsxVIv": 6773,
"##hksX": 6774,
"qcOwW": 6775,
"##RxprwQ": 6776,
"##ZEUb": 6777,
"##AKqjk": 6778,
"snQp": 6779,
"RXMC": 6780,
"qxY": 6781,
"##ziCFMO": 6782,
"Ea": 168935,
"eS": 191859,
"##IKngh": 6785,
"##Br": 180192,
"urFVj": 6788,
"YbdA": 6789,
"##OdK": 49203,
"lrG": 119376,
"##HdmxGw": 6792,
"##fqEwnG": 6794,
"##YpAAUK": 6796,
"##CK": 188666,
"##sW": 187128,
"JI": 198125,
"##Az": 177488,
"YNp": 6801,
"##EGrrHJ": 6802,
"##qJONKs": 6803,
"YHBxv": 6804,
"AhgmM": 6805,
"##UYl": 6806,
"woixi": 6807,
"##XMigeo": 6808,
"##LGBod": 6809,
"##YelF": 6810,
"##TG": 187413,
"##cAhCtg": 6812,
"##GjqoN": 6813,
"gIikx": 6814,
"Iv": 177125,
"PNaE": 6816,
"UN": 142005,
"eP": 183586,
"tf": 161106,
"##PyMOk": 6820,
"baSglw": 6821,
"##HcXq": 6822,
"##RUH": 6823,
"alUaU": 6824,
"##Kk": 191852,
"##MegV": 6826,
"##lo": 164385,
"##Nvp": 6828,
"Tkb": 183771,
"QXs": 6830,
"NYvmG": 6831,
"##QIHrh": 6832,
"zOFo": 6834,
"##cmVkm": 6835,
"##EvdVX": 6836,
"##pgKMh": 6837,
"##Cviy": 6838,
"fcUsp": 6839,
"##qMQX": 6840,
"##nnYj": 6841,
"LgCVzG": 6842,
"##Qmltj": 6843,
"##azjM": 6844,
"##YvbWBU": 6845,
"spU": 6846,
"##Wg": 183108,
"##hrK": 6848,
"DpdP": 6849,
"##uQAki": 6850,
"##ZAw": 6851,
"cPZ": 6852,
"##GX": 187638,
"##HgzVjs": 6854,
"krq": 104485,
"##rCW": 6857,
"fQy": 6858,
"##gY": 196542,
"##fFHg": 6860,
"prXhzz": 6861,
"##UsTtmY": 6862,
"bhc": 6863,
"nEbZNO": 6864,
"mSOt": 6865,
"KFB": 6866,
"gQANO": 6867,
"##nfT": 101281,
"ddp": 6869,
"sPh": 6870,
"QrNUD": 6871,
"##TsdWz": 6872,
"##Bf": 183429,
"DZN": 6874,
"##MFtLM": 6875,
"##Dglp": 6876,
"yXu": 6877,
"lJAPF": 6878,
"##lJRLm": 6879,
"##UEeBw": 6880,
"##zGGgTN": 6881,
"##jbb": 6882,
"zKGL": 6883,
"nT": 178765,
"##eo": 191796,
"##pjo": 6886,
"Gje": 125190,
"gyv": 6888,
"##PpLQla": 6889,
"##OVnjVE": 6890,
"##pZL": 6891,
"##kDa": 193427,
"auLl": 6893,
"cMLkn": 6894,
"dYXkO": 6895,
"##CZW": 6896,
"##aniaJ": 6897,
"##jAagh": 6898,
"ABjU": 6899,
"##gGzsd": 6900,
"##IWS": 6901,
"BlwID": 6902,
"krUKGn": 6903,
"goAb": 6904,
"##roco": 6905,
"CPC": 6906,
"##jJFyLY": 6907,
"kcjEI": 6908,
"##vMPxC": 6909,
"jkPRTG": 6910,
"SfRyUW": 6911,
"##fGaAya": 6912,
"##Buaa": 6913,
"##SsLHxV": 6914,
"HIgLsb": 6915,
"Hojz": 6916,
"ClO": 6917,
"Xv": 171586,
"CSpj": 6919,
"##vR": 159427,
"##IZ": 129364,
"hsOqE": 6922,
"jwU": 6923,
"VBIkpO": 6924,
"WY": 126216,
"QxMrSp": 6926,
"GEBkP": 6927,
"##Wl": 162115,
"mI": 196524,
"##nGLL": 6930,
"##jcLWrk": 6931,
"##EKJFt": 6932,
"CuJqk": 6933,
"##lqnimO": 6934,
"KiNF": 6935,
"##pPUMcV": 6936,
"ltoHqM": 6937,
"##zvDRh": 6938,
"##KyK": 6939,
"##Zs": 152067,
"fe": 177084,
"##YbP": 6943,
"WaL": 6944,
"zvs": 6945,
"wzau": 6946,
"HDx": 6947,
"##yk": 149112,
"mxMEmv": 6949,
"##pCuEc": 6950,
"KyEG": 6951,
"es": 123393,
"qk": 197544,
"##CTRM": 6954,
"tIN": 6955,
"ch": 195006,
"##zee": 6957,
"##HwZJ": 6958,
"##cEqrrH": 6959,
"Xpekau": 6960,
"xojJy": 6961,
"##doXJ": 6962,
"##ouqIzb": 6963,
"FKnE": 6964,
"BvIVi": 6965,
"MR": 190428,
"aNk": 6967,
"##lTs": 6968,
"Dm": 189432,
"##QcInAh": 6970,
"##SOFM": 6972,
"##kA": 182982,
"YzRcC": 6974,
"ycCB": 6976,
"##ROcg": 6977,
"##cXLbEZ": 6978,
"oVZuW": 6979,
"jyfmV": 6980,
"lE": 159072,
"##Ajouvb": 6982,
"##roy": 6983,
"HcTS": 6984,
"mXZHb": 6985,
"Bl": 161455,
"##qqPCjH": 6987,
"yNid": 6988,
"##PZg": 6989,
"HMpW": 6990,
"##GUoNhZ": 6991,
"LIM": 6992,
"yK": 199745,
"lCgJ": 6994,
"##xAh": 6995,
"QIlTtO": 6996,
"zyYPz": 6997,
"##iddbe": 6998,
"##UnRs": 6999,
"Rpo": 7000,
"##LHs": 7001,
"xKxKJw": 7002,
"wNrE": 7003,
"TnB": 7004,
"njfuIE": 7006,
"GOi": 7007,
"wDuFh": 7008,
"tXxZ": 7009,
"tJCcWl": 7011,
"dWx": 7012,
"Bt": 173489,
"##jBYlq": 7014,
"##vqQKe": 7015,
"##ENnED": 7016,
"PrEQmu": 7017,
"CTDfx": 7019,
"##KyC": 65964,
"##dklW": 7021,
"##GODHKg": 7022,
"crKJHz": 7023,
"##dHLW": 7025,
"nKvyN": 7026,
"##fpb": 7027,
"ztyNM": 7028,
"##OXKqB": 7029,
"##yOOzoP": 7030,
"##amrX": 7031,
"##lXuLS": 7032,
"CSNC": 47463,
"##fTQ": 7034,
"zeGI": 7035,
"OW": 199030,
"LlB": 7037,
"##nwtXP": 7038,
"Dh": 177219,
"##iIuXPq": 7041,
"AudMm": 7042,
"##ouOM": 7043,
"##zCVso": 7044,
"Go": 196949,
"ZKpE": 7046,
"##vCMLxd": 7047,
"##zBHli": 7048,
"fXx": 196706,
"##qBGi": 7050,
"##DUIQ": 7051,
"NaN": 7052,
"##geSGIX": 7053,
"##vhxTfA": 7054,
"kx": 154775,
"dyYxm": 7056,
"QGDl": 7057,
"mK": 118181,
"##HNw": 7059,
"MmwOQL": 7060,
"##UNdXj": 7061,
"lub": 7062,
"##KzOP": 7064,
"wya": 7065,
"tZI": 7066,
"##Ami": 7067,
"##JmaY": 7068,
"##fEGFe": 7069,
"##IqkmY": 7070,
"dBM": 7071,
"vNSDm": 7072,
"##Tzdu": 7073,
"nips": 7074,
"Zc": 194391,
"##CyKNP": 7076,
"kzQAy": 7077,
"nwrPl": 7078,
"##ifSGVD": 7079,
"##tMHrcF": 7080,
"##AFFse": 7081,
"dRNFj": 7082,
"##ic": 196650,
"xPw": 105303,
"nMbs": 7085,
"CALJ": 7086,
"Mu": 125591,
"##iejye": 7088,
"##wRyFW": 7089,
"sGtvTG": 7090,
"gPOXxU": 7091,
"##hBmQx": 7092,
"nNKV": 7093,
"CKGRw": 7094,
"##TYnGo": 7095,
"##LEegK": 7096,
"##Dja": 7097,
"kJV": 7098,
"Uhb": 110273,
"lst": 7100,
"tUlJO": 7101,
"QlJtT": 7102,
"##aYjTT": 7103,
"##ZsIPX": 7104,
"##mfd": 7105,
"##ZVN": 7106,
"##cZtoe": 7107,
"##hSRbY": 7108,
"##bcYBfc": 7109,
"cfWspT": 7110,
"xkNsLJ": 7111,
"SnvqO": 7112,
"##mTZa": 7113,
"##XGXdNe": 7114,
"##GrBeK": 7115,
"Qsx": 7116,
"##BMaP": 7117,
"Lug": 7118,
"fxNuc": 7119,
"##EDp": 7120,
"BPEr": 7121,
"gxTZgK": 7122,
"##KcGY": 7123,
"##Nqy": 7124,
"##Cq": 195947,
"##ThpGLc": 7126,
"qfM": 7127,
"##Nu": 186658,
"AqE": 7129,
"InM": 7131,
"tJ": 175471,
"##ikRCX": 7133,
"CWG": 7134,
"##hBij": 7135,
"AthXP": 7136,
"FAXa": 7137,
"##eZw": 90234,
"##uI": 152297,
"##yeW": 7140,
"##pon": 7141,
"QyI": 26894,
"UWlBi": 7143,
"##FWGld": 7144,
"GpWpd": 7145,
"qRjRt": 7146,
"##rEgeFg": 7147,
"ixd": 7148,
"FVL": 7149,
"TvZDe": 7150,
"WDqbgM": 7151,
"##PcYqx": 7152,
"IVzS": 7154,
"##pFwAfI": 7155,
"zfEor": 7156,
"DrQU": 7157,
"WxXbM": 7158,
"##pZO": 7159,
"nHkTgK": 7160,
"##odbyZA": 7161,
"zy": 195566,
"OigH": 7163,
"rzfps": 7164,
"##HdDyq": 7165,
"hg": 159071,
"DvctR": 7167,
"##geFPEL": 7169,
"##UebQn": 7170,
"##Eb": 145732,
"##xikn": 7172,
"oHlB": 7173,
"eHbLz": 7174,
"##WDC": 7175,
"##nOCL": 7176,
"ASMv": 7177,
"##HdbUFy": 7178,
"vl": 191503,
"##nmAVSK": 7180,
"yoI": 7183,
"##Yxnyr": 7184,
"Qwv": 7185,
"cxjZM": 7186,
"wYLBEj": 7187,
"kdE": 7188,
"##OrhwJx": 7189,
"tPk": 7190,
"##quUrX": 7191,
"##qMIiP": 7192,
"##HlvNzm": 7193,
"##TwOfo": 7194,
"##zTu": 7195,
"pb": 196992,
"##EdrW": 7197,
"##XKB": 7198,
"##VUGB": 7199,
"vprrl": 7200,
"AOqu": 7201,
"##nf": 147470,
"##glqi": 7203,
"##LvDTxK": 7204,
"##PK": 183605,
"##yRM": 7207,
"UcVoO": 7208,
"##gwNmug": 7209,
"##czCTT": 7210,
"##rXq": 7211,
"HduL": 7212,
"QI": 132696,
"jKl": 7214,
"##OC": 191802,
"sPr": 7216,
"nZEa": 7217,
"##Dko": 7218,
"##LTfk": 7219,
"##JDjZ": 7220,
"QYGyIt": 7221,
"XTRDBW": 7222,
"jOj": 7223,
"LRnwd": 7224,
"txbln": 7225,
"Emldmz": 7226,
"##xOb": 7227,
"##tIOnW": 7228,
"ZcfhV": 7229,
"BmD": 96146,
"lSe": 7231,
"XKtDcp": 7232,
"hRDC": 7233,
"hKF": 126429,
"##LqH": 7235,
"##nDXzW": 7236,
"##RV": 198513,
"##Beu": 7238,
"##veu": 7239,
"##OWkYU": 7240,
"##oG": 178506,
"##dGMHju": 7242,
"##uFZwD": 7243,
"##eR": 172417,
"##Dow": 7245,
"##phrxhy": 7246,
"aoLbH": 7247,
"##gwgb": 7248,
"##yFDGc": 7249,
"iBouK": 7250,
"qOvCkz": 7251,
"##eTw": 7252,
"Pvy": 7253,
"DRv": 154835,
"iO": 195606,
"##sBFa": 7257,
"fuoy": 7258,
"##WPKH": 7259,
"##GTK": 7260,
"##ioRCNw": 7261,
"##voA": 7262,
"StrqoF": 7263,
"##UYvXjf": 7264,
"UJ": 198499,
"Zga": 7266,
"Gt": 180097,
"##GRVUga": 7268,
"NItBS": 7269,
"MfXO": 7270,
"jonwIP": 7271,
"WJc": 7272,
"##lsIV": 7273,
"ad": 188125,
"Ej": 163304,
"wZcC": 7276,
"##Da": 189609,
"oZUMzg": 7278,
"IOgo": 7279,
"##gcxK": 7280,
"##madF": 7281,
"##CqbuVf": 7282,
"Of": 198450,
"##cr": 179305,
"##tbG": 7285,
"yWiD": 7286,
"##xHAoEW": 7287,
"##neq": 7289,
"##HcTP": 7290,
"GyEREi": 7291,
"##zAHe": 7292,
"##Qqzs": 7293,
"uvepTC": 7294,
"##HXKEfw": 7295,
"BQd": 7297,
"Paha": 7298,
"##mZRZu": 7299,
"jqU": 7300,
"##Zhw": 7301,
"##pNMvgC": 7302,
"tRg": 7303,
"##bosK": 7304,
"##JF": 138941,
"##kMw": 7306,
"OwwfL": 7307,
"##xeeM": 7308,
"rTwfkj": 7309,
"##LRGuGp": 7310,
"hzvXZM": 7311,
"##evpTu": 7312,
"vSJjEs": 7313,
"lJTylv": 7314,
"##Qeg": 84391,
"alR": 7316,
"ao": 192381,
"##qE": 183895,
"##adGyI": 7319,
"gDAw": 7320,
"NWWPOR": 7321,
"jc": 196106,
"##msfW": 7324,
"dqwZT": 7325,
"kDuM": 7326,
"##BzUHSQ": 7327,
"##vBL": 7328,
"QRAM": 7329,
"##AQ": 172281,
"##isCzyo": 7331,
"##WnY": 7332,
"RbIiz": 7333,
"Xc": 187205,
"peCDZ": 7335,
"oBYuYE": 7336,
"##YJ": 178552,
"YnmFF": 7338,
"##wwQ": 7339,
"xO": 165762,
"##orR": 7342,
"##OFAY": 7343,
"DJX": 29988,
"##Rgr": 7345,
"Rwvzw": 7346,
"PNrUfz": 7347,
"##jebXRU": 7348,
"ppUrJu": 7349,
"AlO": 197670,
"Eazce": 7351,
"bdmcS": 7352,
"##OLm": 7353,
"##PCt": 85290,
"##iC": 198466,
"##KDV": 7357,
"##EkPRtm": 7358,
"BuCa": 7359,
"##AKwmaK": 7360,
"##tr": 148209,
"##EojX": 7362,
"Qwx": 7363,
"EIX": 7365,
"aIX": 7366,
"NpebL": 7367,
"LSo": 7368,
"##nvTz": 7369,
"zdFb": 7370,
"##WrxI": 7371,
"dYkXfc": 7372,
"##JJQXo": 7373,
"##lGPtL": 7374,
"mbBGK": 7375,
"whe": 7376,
"IVo": 104094,
"##lMsYZ": 7378,
"RGmJR": 7379,
"vawmRy": 7380,
"##aVoHO": 7381,
"##UhIpuu": 7382,
"iGx": 7383,
"Wq": 176107,
"qBL": 7385,
"##kp": 162763,
"##Sv": 73902,
"EaVuA": 7388,
"##KRti": 7389,
"Qa": 186209,
"##YVanZM": 7391,
"##GBUL": 7392,
"jVAo": 7393,
"xDym": 7394,
"##lRRrk": 7395,
"SSugX": 7396,
"vYl": 7397,
"vA": 199291,
"wOy": 7399,
"ZRj": 7400,
"fTtTlH": 7401,
"CS": 133876,
"PAIAph": 7403,
"##AftBwX": 7404,
"##wGn": 7405,
"##ydY": 17913,
"##QCi": 91110,
"ZHJCgM": 7408,
"Rn": 199591,
"aNWyF": 7410,
"##BqWn": 7411,
"##mTBwtH": 7412,
"##gLDGXH": 7413,
"VydN": 7414,
"##CfKD": 7415,
"Uz": 158364,
"MLcM": 7417,
"##jgiy": 7418,
"##jUjFcL": 7419,
"##skmk": 7420,
"Mtms": 7421,
"##AWEyi": 7422,
"##AirCS": 7424,
"sM": 21891,
"Blr": 7426,
"CHlr": 7427,
"##quUmdt": 7428,
"##KROP": 7429,
"##MmEfW": 7430,
"##IjKcy": 7431,
"nWl": 7432,
"##VjsYJ": 7433,
"fmqRK": 7434,
"##zvh": 7435,
"##AoK": 7436,
"##HyH": 7437,
"##uj": 172404,
"WMs": 7439,
"KTmypB": 7440,
"##CwI": 7441,
"##TznN": 7442,
"##qQE": 7443,
"SGPRz": 7444,
"BjERlC": 7445,
"fIUqj": 7446,
"##mIhk": 7448,
"OaSKM": 7449,
"jQDlz": 7450,
"jikxTU": 7451,
"##HqL": 7452,
"hGh": 7453,
"##DZq": 188309,
"wvUkf": 7455,
"##fvp": 7456,
"##nWi": 7457,
"zBUg": 7458,
"##bx": 179828,
"Jhu": 7460,
"Fpp": 7461,
"##Zu": 154737,
"##CbfDcZ": 7463,
"##nuGxrh": 7465,
"ZM": 194897,
"VAikY": 7467,
"SlT": 125647,
"##jC": 181535,
"##iEb": 7470,
"##VXVi": 7471,
"##TPAbq": 7472,
"##OGD": 7473,
"lqHZ": 7474,
"##cLR": 7475,
"YZRDH": 7476,
"##Kt": 146205,
"##ZRyfY": 7478,
"##xqdnFc": 7479,
"##DDIL": 7481,
"##cueLM": 7482,
"ujRP": 7483,
"##Ngxl": 7484,
"##YuTY": 7485,
"##vP": 99373,
"##efUZk": 7487,
"wiD": 7488,
"MWVKae": 7489,
"eTLr": 7490,
"##dawPJ": 7491,
"##diMMT": 7492,
"##HUJji": 7493,
"##cxblVg": 7494,
"##xYxHU": 7495,
"##grwOb": 7496,
"##jv": 165647,
"BTzN": 7498,
"fiYbzV": 7499,
"##chWkzY": 7500,
"##dbI": 7501,
"##Uaiv": 7502,
"nsS": 7503,
"XRB": 66823,
"Vxw": 7505,
"##fbn": 7506,
"##uaxHXR": 7507,
"mq": 147340,
"##OP": 182842,
"TteeW": 7510,
"YNGAR": 7511,
"mJA": 7512,
"jqmZd": 7513,
"##GzNysm": 7514,
"##hOpZV": 7515,
"iSWVPu": 7517,
"yS": 154359,
"##MkxY": 7519,
"lvTolC": 7520,
"##fj": 192265,
"npynMg": 7522,
"##odUDQ": 7523,
"Mb": 143656,
"JV": 184757,
"McS": 7527,
"SCIl": 7528,
"##KFfm": 7529,
"GSxv": 7530,
"##WTSXm": 7531,
"luy": 7532,
"##Nn": 186163,
"XMzQ": 7534,
"##fdH": 7535,
"FMrzVj": 7536,
"##Cgctop": 7537,
"##rzGEI": 7538,
"kIY": 7539,
"WMZRKK": 7540,
"IZlV": 7541,
"Yb": 196531,
"##qJMDn": 7543,
"TOzIP": 7544,
"##RCzoco": 7545,
"##teJgPi": 7546,
"Um": 147037,
"##xV": 193923,
"Wjrblh": 7549,
"##ShAn": 7550,
"##SjU": 7551,
"##USoGU": 7552,
"##KEvjDq": 7553,
"##Uq": 194917,
"WUCB": 7555,
"##QcguGR": 7556,
"fxLB": 7557,
"Eh": 192249,
"HX": 166547,
"##oD": 193333,
"iXmv": 7561,
"nd": 183152,
"JVU": 13376,
"VM": 191355,
"##DFwbs": 7566,
"bUb": 7567,
"##gy": 150277,
"##urw": 7569,
"##uDTlMn": 7570,
"##lYf": 7571,
"##TEl": 7572,
"vSvFf": 7573,
"dRaTlh": 7574,
"oPsi": 7575,
"noGDo": 7576,
"##NpSgAl": 7577,
"egpytA": 7578,
"##Zanjv": 7579,
"##mgP": 7580,
"KgioHr": 7581,
"MmFp": 7582,
"##fRiy": 7583,
"##sTE": 12137,
"woHblv": 7585,
"##aMMtda": 7586,
"##Ld": 112424,
"HDI": 7589,
"AuN": 7590,
"ZVI": 7591,
"##aijS": 7592,
"##TTRD": 7593,
"##DZGkI": 7594,
"ys": 195911,
"##aOhp": 7596,
"mIOQhM": 7597,
"##RNe": 57630,
"##lWBf": 7599,
"##Mp": 172871,
"pWlRDr": 7601,
"IsxB": 7603,
"##hP": 127684,
"##oWLrQt": 7605,
"PLTgN": 7606,
"VSz": 7607,
"##jOVwC": 7608,
"XkYEb": 7609,
"Lz": 174072,
"##VwIAIY": 7611,
"QZdU": 7612,
"VdtP": 7613,
"HVNziM": 7614,
"##kCSH": 7615,
"##qICZOh": 7616,
"nbc": 7617,
"gSlxq": 7618,
"uKX": 7619,
"##FSu": 7620,
"##gsNzE": 7621,
"##rqSui": 7622,
"EvP": 7623,
"pPT": 7625,
"##iwQBE": 7626,
"##ev": 161564,
"saOeh": 7628,
"rxexnM": 7630,
"##JW": 182023,
"##xeAre": 7632,
"##MtdyN": 7634,
"##wXkWz": 7635,
"fVccx": 7636,
"VJod": 7637,
"mjiqOm": 7638,
"##Ywx": 7639,
"##EYp": 7640,
"##Lv": 199700,
"##zSrq": 7642,
"fhPRV": 7643,
"LgLD": 7644,
"##el": 196408,
"eSjqH": 7646,
"HB": 181308,
"##FpSaEh": 7648,
"##CyY": 7649,
"##YGIF": 7650,
"lDD": 7651,
"ZnKNN": 7652,
"IOdiVx": 7653,
"##lK": 187739,
"tg": 144226,
"zjXim": 7656,
"JPHwOG": 7657,
"rYbS": 7658,
"iUna": 7659,
"PxvziF": 7660,
"##fHjSMj": 7662,
"IxFBe": 7663,
"ZHvTXW": 7664,
"VjF": 7665,
"##UmJ": 7666,
"oFyjSy": 7667,
"##KFKQ": 7668,
"ILOX": 7670,
"sJVFJr": 7671,
"##Yyr": 7672,
"##PRAp": 7673,
"KklADp": 7674,
"##zPFRN": 7675,
"Vc": 197401,
"##YJgxb": 7677,
"oMo": 157675,
"##TZP": 7679,
"to": 192763,
"##Ex": 184736,
"##Kns": 7682,
"##rXNoam": 7683,
"##jfK": 17701,
"ee": 156916,
"lPm": 162536,
"##yXQ": 7687,
"##bbnHTz": 7688,
"##CjooM": 7689,
"bGlpO": 7690,
"##sYrplX": 7691,
"##vRJsN": 7692,
"##BwrjVn": 7693,
"##Gzg": 7694,
"hoH": 92629,
"##zAoRT": 7696,
"##DMTGu": 7697,
"##TX": 199646,
"akkO": 7699,
"ileoO": 7700,
"##SzdHl": 7701,
"HwBg": 7702,
"##VNIX": 7703,
"hLuk": 7704,
"jt": 183645,
"yln": 7706,
"##OE": 199796,
"##dAPeGR": 7708,
"##QC": 157361,
"##RO": 156417,
"os": 194074,
"##uqLF": 7712,
"##pzU": 7713,
"##itFRu": 7714,
"Hjlm": 7715,
"LRTBT": 7716,
"DAIU": 7717,
"##Tx": 181337,
"PXqG": 7720,
"##xNuNv": 7721,
"JEkRR": 7722,
"piJJY": 7723,
"##DKdY": 7724,
"##jvmRwT": 7725,
"##tYH": 7726,
"##tTTU": 7727,
"heU": 7728,
"zvfWmJ": 7729,
"##gsO": 7730,
"iOJotu": 7731,
"rYSl": 7732,
"MXly": 7733,
"DqHeTz": 7735,
"##gbSy": 7737,
"iIC": 7738,
"Yx": 121173,
"eCrCs": 7740,
"CAlC": 7741,
"fqvQtD": 7742,
"DMCy": 7743,
"AWeX": 7744,
"##HIYvx": 7745,
"ZVxwf": 7746,
"##ipD": 7747,
"##oduDvJ": 7749,
"AL": 141885,
"##ipkl": 7751,
"yR": 146099,
"MmNY": 129867,
"TB": 196183,
"##ctUyWN": 7755,
"##vrla": 7756,
"xkh": 7757,
"FLZQP": 7758,
"DRyVA": 7759,
"qNGW": 7760,
"##YGl": 7761,
"##KC": 166193,
"KGU": 7763,
"OGgUr": 7764,
"kwf": 7765,
"uSVtr": 7766,
"##GdVB": 7767,
"CyXOM": 7768,
"cwKv": 7769,
"hh": 189775,
"##DEZLe": 7772,
"##Wz": 181669,
"vp": 162364,
"DUgkl": 7776,
"gmJ": 7777,
"EXUfVk": 7778,
"##yO": 146069,
"##AsVPrK": 7780,
"MoCzn": 7781,
"##tyxprb": 7782,
"Eme": 7783,
"##DLqbwS": 7784,
"iGd": 7785,
"##Lblabr": 7786,
"##PRf": 7787,
"gIb": 53123,
"RKqcr": 7789,
"exZbQy": 7790,
"##eJcns": 7791,
"na": 197711,
"cHZ": 7793,
"qzZyJ": 7794,
"##keNa": 7795,
"##NrXKh": 7796,
"##kCxqch": 7798,
"OIq": 7800,
"##oC": 193200,
"##hGAW": 7802,
"AryExG": 7803,
"##YAnIsA": 7804,
"Qd": 123455,
"woKYQV": 7806,
"IRXCVo": 7807,
"##dxu": 7808,
"Tj": 62004,
"##UMj": 7810,
"ZKWhbF": 7811,
"##mZ": 171562,
"##TCLrz": 7813,
"XQZ": 7814,
"MXR": 7815,
"##XpBK": 7816,
"##ccDWI": 7817,
"Upz": 76342,
"##vYPQvV": 7819,
"##VZp": 7820,
"nRteQg": 7821,
"fqk": 7822,
"As": 161047,
"##HZUG": 7824,
"iyziF": 7825,
"Lf": 198631,
"dPZhH": 7827,
"##FSBrZO": 7828,
"##jQjGuh": 7829,
"egsEX": 7830,
"##bctRlq": 7831,
"##kdE": 7832,
"NjBXey": 7833,
"dhGc": 7835,
"##um": 186219,
"##zGBtJ": 7837,
"zVmq": 7838,
"Kaqs": 7839,
"##Pu": 167858,
"wp": 188416,
"##iuZxxQ": 7842,
"agWk": 7843,
"YNZgh": 7844,
"LyUa": 7845,
"##rnV": 7846,
"yrCnwU": 7847,
"##GcjkPX": 7848,
"HOJrS": 7849,
"ThQD": 7850,
"##cdtLni": 7851,
"NKyBJr": 7852,
"zVta": 7853,
"##ZDON": 7854,
"##pAp": 7855,
"##ZXc": 12057,
"qaUaZ": 7857,
"RftUQ": 7858,
"##Dtp": 7859,
"##QUD": 7860,
"IzCA": 7861,
"##lGz": 7862,
"AZ": 187141,
"##xsxIao": 7864,
"Ulpra": 7866,
"##eWID": 7867,
"Yi": 101720,
"dnq": 193161,
"##oOeGa": 7870,
"ADIkjH": 7871,
"gopvE": 7872,
"lxlZGg": 7873,
"##ZdqJ": 7874,
"iE": 186063,
"UWfEr": 7876,
"##Zf": 195909,
"##EnBs": 7878,
"##UXWWol": 7879,
"##cIYPK": 7880,
"##TSTxvf": 7881,
"##WE": 162657,
"cnZi": 7883,
"beFvpw": 7884,
"##qboKHO": 7885,
"##bsq": 7886,
"zRpr": 7887,
"##oK": 194780,
"##HI": 187448,
"EOIBx": 7890,
"##QXXpnz": 7891,
"rqHV": 7892,
"##ZL": 184760,
"pWsm": 7894,
"QBSooZ": 7895,
"##ck": 191275,
"##Jmtqp": 7897,
"hNa": 7898,
"GaVK": 7899,
"XYHyyI": 7900,
"##Ui": 162123,
"YLAOtn": 7902,
"##ShaEV": 7903,
"##rGMGYz": 7904,
"wvJTi": 7906,
"##QhurE": 7907,
"yfPLq": 7909,
"vfQO": 7910,
"vpf": 7911,
"##fys": 7912,
"Txv": 7913,
"##afB": 7914,
"##jb": 184658,
"##RQ": 191747,
"QP": 188631,
"JCKx": 7918,
"##merMKk": 7919,
"TQVSiN": 7920,
"##Oa": 158908,
"ePH": 7922,
"##XHGA": 7923,
"SV": 103662,
"##ihc": 7925,
"sfj": 7926,
"UKAETn": 7927,
"sWxv": 7928,
"EvMx": 7929,
"##ccX": 7930,
"ap": 199107,
"##anAOe": 7932,
"##AsVwnY": 7933,
"##GoOdt": 7934,
"ETxeUM": 7935,
"##ydgKp": 7936,
"##RE": 180285,
"##eFetmr": 7939,
"##wOnJU": 7940,
"##icUWf": 7941,
"JmzTrc": 7942,
"zL": 187144,
"##ylwT": 7944,
"ztP": 138406,
"##QUQyaI": 7946,
"FCvk": 7947,
"FdlI": 7948,
"MoGQ": 7949,
"ysXX": 7950,
"oyGy": 7951,
"##wZRlm": 7952,
"##HeR": 7953,
"jtjgJD": 7954,
"##fmpY": 7955,
"pOF": 7956,
"ePAZv": 7957,
"onRGG": 7958,
"JsR": 7959,
"rkWAlk": 7960,
"IIjZHB": 7961,
"##TNq": 7962,
"##sA": 197363,
"##NX": 194179,
"##ZJ": 115582,
"FWCp": 7967,
"##uO": 181044,
"##AfvER": 7969,
"##kN": 181148,
"LCG": 7971,
"##eNw": 7972,
"##sGoBZD": 7973,
"YNq": 7975,
"PSq": 68019,
"Ec": 164228,
"awr": 48927,
"FDt": 91567,
"##ZRvYQb": 7980,
"do": 160558,
"VXHIz": 7982,
"tsFhj": 7983,
"##ksQik": 7984,
"##HudTIR": 7986,
"aSV": 171258,
"CVdKiw": 7988,
"jNSXxV": 7990,
"##pf": 198619,
"Duos": 7992,
"##GE": 146950,
"VDUCCr": 7995,
"HYkxtn": 7996,
"##XtRCL": 7997,
"XEqF": 7998,
"zt": 163892,
"BTLz": 8000,
"PmXWRl": 8001,
"lTc": 8002,
"YfeJJ": 8003,
"VNk": 8004,
"##jGqHwj": 8005,
"##zoBW": 8006,
"##dQNiY": 8007,
"##BYXNcU": 8008,
"##iTaSP": 8009,
"##hr": 170122,
"##VutXjs": 8011,
"ofH": 8012,
"##THKxK": 8013,
"OaK": 8014,
"VOY": 8015,
"hrhPz": 8016,
"##FyjQv": 8017,
"pkXa": 8018,
"##FSL": 8019,
"VQBiEa": 8020,
"##XpbI": 8021,
"##sUzd": 8022,
"wP": 177148,
"##tGy": 8024,
"LmVFjB": 8025,
"gUUp": 8026,
"##HiN": 8027,
"##LiZs": 8028,
"WWVM": 8029,
"##FdoiN": 8030,
"##qWARPI": 8031,
"##cO": 188817,
"egJ": 8033,
"##XizQ": 8034,
"UOs": 8035,
"##vLZH": 8036,
"##cYABH": 8037,
"Rc": 180678,
"##EVBa": 8039,
"HLYJaO": 8040,
"##ptS": 8041,
"uXbR": 8042,
"Qsn": 8043,
"##uJQ": 8044,
"AWzX": 8045,
"XqF": 169796,
"##HsaPf": 8047,
"##LCNIpg": 8048,
"YArdt": 8049,
"PCFYrC": 8050,
"##Tl": 187783,
"enV": 8052,
"nycvSC": 8053,
"##HbIcqG": 8054,
"kAI": 8055,
"bLt": 8056,
"##yPo": 8057,
"GYfT": 8058,
"sSmx": 8059,
"GQg": 8060,
"##awbeWc": 8061,
"OA": 152164,
"##tJMtM": 8063,
"OblgMh": 8064,
"##cWCo": 8065,
"##LEoRGR": 8066,
"vD": 193264,
"##nh": 170883,
"##skSr": 8069,
"##BJf": 8070,
"##Ii": 188447,
"##RxHGsX": 8072,
"##Vu": 199039,
"##IrU": 8074,
"AnLktB": 8075,
"eqtF": 8076,
"##ixOgiw": 8077,
"mNHO": 8078,
"##fQFV": 8079,
"WPcaHO": 8080,
"##zwvxus": 8081,
"##ow": 198808,
"##xncr": 8083,
"NEB": 8084,
"##NBgK": 8085,
"##OsfR": 8086,
"vdzfj": 8087,
"SbuJ": 8088,
"##kKCjPG": 8089,
"##UArSX": 8090,
"##xRnPk": 8092,
"##deskCv": 8093,
"BOg": 8094,
"bKba": 8095,
"##QLH": 8096,
"MoLkU": 8097,
"##poR": 8099,
"##BTDs": 8100,
"##XZ": 185014,
"##xABMD": 8102,
"##bK": 175096,
"lgKu": 8104,
"avBZhG": 8105,
"NS": 157947,
"##bGmhc": 8107,
"BZlPX": 8108,
"UHpSe": 8109,
"bY": 152079,
"wxGIjr": 8112,
"XlKG": 8113,
"##Uo": 165352,
"##WWrj": 8116,
"taR": 8117,
"Aoqr": 8118,
"##ovPdh": 8119,
"nxwdi": 8120,
"UP": 167349,
"##Hn": 196219,
"Roxnit": 8123,
"YiOlqR": 8124,
"LsRn": 8125,
"##Hfi": 8126,
"##hFhG": 42382,
"fTmlw": 8128,
"CT": 199850,
"Ng": 168877,
"##OfYc": 8132,
"vsAKY": 8133,
"Avf": 8134,
"##pVkLD": 8135,
"RGZ": 8136,
"##IBz": 8137,
"##VdjZd": 8138,
"CAARUe": 8139,
"##GJCQCY": 8140,
"##wdTpKS": 8141,
"CLKM": 8142,
"IdCRNE": 8143,
"##bTfoSv": 8144,
"##APbqBt": 8145,
"ClIHwG": 8146,
"mqvsr": 8147,
"YMdNW": 8148,
"##jDM": 8149,
"##RkfaA": 8150,
"##JrbnBc": 8151,
"DYY": 8152,
"##Pk": 195595,
"##MYopF": 8154,
"PNU": 108994,
"##pRKHtx": 8157,
"VpcDI": 8158,
"##ZioIHt": 8159,
"Nr": 191815,
"UouNdg": 8161,
"##tD": 190703,
"##bGrh": 8163,
"##dCCR": 8164,
"##bqEnkx": 8165,
"##ui": 165966,
"mg": 186391,
"##rmf": 8168,
"##uAB": 8169,
"##NzZgg": 8171,
"iZ": 84521,
"QOKq": 8173,
"XTBfSF": 8174,
"##izt": 8175,
"lP": 197275,
"##qibqm": 8177,
"##bQSCzM": 8178,
"##jK": 181059,
"##Ytk": 8180,
"YFSKq": 8181,
"##xnP": 8183,
"XjE": 8184,
"bG": 190002,
"bJxdn": 8186,
"ve": 151603,
"vsj": 8188,
"##KiQEb": 8189,
"za": 197725,
"PlC": 8192,
"SyKYM": 8193,
"##QHd": 8194,
"odYdg": 8195,
"##hQiA": 8196,
"iWQ": 8197,
"Mmwndg": 8198,
"##Nuen": 8199,
"##mklzi": 8200,
"OdTHM": 8201,
"##hzBtk": 8202,
"##GiOons": 8203,
"##mpkW": 8204,
"YoFw": 8205,
"##CJqMi": 8206,
"##SYrZ": 8207,
"gk": 173044,
"##OeSq": 8209,
"xhd": 8211,
"bQgO": 8212,
"iSKjR": 8213,
"##lbG": 8214,
"jZNk": 8215,
"##IXMfYl": 8216,
"##esXOLt": 8218,
"GAiiH": 8219,
"##Odcbv": 8220,
"##przWp": 8221,
"##pwTUt": 8222,
"qd": 176906,
"ju": 192750,
"##pYgv": 8225,
"nLOA": 8226,
"##XmxlS": 8227,
"##mYxAFG": 8228,
"##LTmEt": 8229,
"##wESe": 8230,
"##kKgcFv": 8231,
"RWsae": 8232,
"JQK": 8233,
"##cVU": 8234,
"##RD": 178986,
"##EGsz": 8236,
"##uMq": 29406,
"##fXLr": 8238,
"dqM": 8239,
"qSmX": 8240,
"dK": 181903,
"gwEpJ": 8242,
"UtlY": 8243,
"##bxOHCZ": 8244,
"ykmMXX": 8245,
"##Ff": 196410,
"EUIvlI": 8247,
"zBby": 8248,
"##mXzxP": 8249,
"##hdz": 8250,
"VAAz": 8251,
"##wiuvM": 8252,
"##mOD": 8253,
"cODe": 8254,
"##kScIe": 8256,
"##YijPjR": 8257,
"aNqD": 8258,
"HTKlfI": 8259,
"wNvEc": 8260,
"xk": 197164,
"##qxIH": 8263,
"##GRri": 8264,
"##JYVa": 8265,
"doDk": 8266,
"zmaG": 8267,
"##cVxux": 8268,
"##eNdK": 8269,
"ZeG": 8270,
"xJuS": 8271,
"##kRi": 8272,
"pnXIXR": 8273,
"##VCea": 8274,
"nIrhXN": 8275,
"GRgy": 8277,
"##OiTQr": 8278,
"##fPqdUL": 8279,
"tOTiH": 8281,
"##onqM": 8282,
"Kft": 8283,
"FhaVKx": 8284,
"NE": 160091,
"##XP": 193179,
"##zsu": 8287,
"cs": 170116,
"##qhu": 8290,
"KLTXKp": 8291,
"##IMK": 8292,
"YAS": 8293,
"lgggHT": 8295,
"##ZIVwr": 8296,
"##DTbHk": 8297,
"IXE": 8298,
"DNowTu": 8299,
"##SHpg": 8300,
"##LQGPzN": 8301,
"##kPY": 8303,
"##bj": 194260,
"##Flhz": 8305,
"##Wx": 164404,
"stg": 8307,
"BK": 194673,
"##ryG": 19267,
"##XbiZ": 8310,
"QtHf": 8311,
"##ubR": 8312,
"VhL": 8313,
"vSTMH": 8314,
"QFaMIC": 8315,
"fR": 183578,
"jwB": 95260,
"PwN": 87390,
"NDI": 161744,
"##aDv": 8320,
"##vSnkT": 8321,
"##Cx": 172935,
"##bIU": 8323,
"QT": 198673,
"##Iq": 178405,
"OAK": 8326,
"INUti": 8327,
"##BTT": 8328,
"waM": 8329,
"##SzPt": 8330,
"##lvWb": 8331,
"Zb": 198742,
"##WWqk": 8333,
"##Mjbsfu": 8334,
"TsTSq": 8335,
"iApSvi": 8336,
"hsQ": 8337,
"##zZiKQ": 8338,
"##eogcC": 8339,
"Ovrx": 8340,
"TV": 179149,
"##kcdK": 8342,
"oEie": 8343,
"##MpURyZ": 8344,
"##kBRYc": 8345,
"XMK": 8346,
"##RZd": 8347,
"lKMh": 8348,
"##NvJ": 8349,
"JjcBeX": 8350,
"##zXURns": 8351,
"Bk": 189850,
"SdWds": 8353,
"##ZPfu": 8354,
"YDykml": 8355,
"##sUuiZ": 8356,
"cxouaG": 8357,
"melGQ": 8358,
"zuVekY": 8359,
"lbTF": 8360,
"YquXWY": 8361,
"YC": 147127,
"##RvGfx": 8363,
"SNZ": 8364,
"##Ekfs": 8365,
"##alw": 8366,
"mrZ": 8367,
"##GmP": 8368,
"##mkzMa": 8369,
"##KDyB": 8370,
"SGc": 8371,
"JfhhD": 8372,
"##Eedsl": 8373,
"##BI": 170236,
"##wLjdLJ": 8375,
"##Tdq": 8376,
"fLErIs": 8377,
"vUn": 91852,
"##QzKSx": 8379,
"zHFZ": 8380,
"##ImFFsE": 8381,
"##vuFWb": 8382,
"##TDGT": 8383,
"##cRMKqn": 8384,
"##NfOauG": 8385,
"RCK": 8386,
"Qunm": 8387,
"KNhojC": 8388,
"##lXElG": 8389,
"pTgu": 8390,
"##HW": 72300,
"##jGjJx": 8392,
"ysGQe": 8393,
"fVsD": 8394,
"orfVP": 8395,
"##BYXM": 8396,
"OUDR": 8397,
"##rtjMhh": 8398,
"gviMt": 8399,
"SKtCf": 8400,
"bH": 92843,
"##XXcr": 8403,
"kG": 169820,
"iMRmc": 8405,
"##CH": 192382,
"Adhnf": 8407,
"am": 150527,
"##oPoVmV": 8409,
"lk": 175063,
"##ZVJIX": 8411,
"phgZ": 8412,
"nhrwe": 8413,
"##cChq": 8414,
"##Am": 152631,
"PHBiv": 8417,
"TWfQy": 8418,
"##CbzdSc": 8419,
"##JgJV": 8420,
"dcVFP": 8421,
"##ea": 176464,
"##Geld": 8423,
"##PxBG": 8424,
"su": 199401,
"KwcsHd": 8426,
"##CnzAs": 8427,
"kdy": 8428,
"AJCz": 8429,
"##JYkiRP": 8430,
"rkWXBA": 8431,
"##HSMQI": 8432,
"##ZPkFkK": 8433,
"kB": 174889,
"##pGvlt": 8435,
"Wbm": 8437,
"##uzw": 8438,
"wGb": 8440,
"##OYd": 8441,
"rqBywN": 8442,
"ZWMT": 8443,
"##RBUQ": 8444,
"uCkYFW": 8445,
"Ch": 186964,
"##RjN": 8447,
"##akEcLY": 8448,
"zBUyAr": 8449,
"WBC": 8451,
"LDX": 61066,
"##rgTKsq": 8453,
"##llFNb": 8454,
"LLvJ": 8455,
"DoNxRn": 8456,
"##nMlKfd": 8457,
"##SsnfkU": 8458,
"Kl": 164147,
"kpD": 8461,
"##LQR": 8462,
"QxbI": 8463,
"hLv": 8464,
"yxwYa": 8465,
"##sa": 193199,
"##Wwb": 8467,
"##Tpolp": 8468,
"Pecm": 8469,
"##jZ": 176437,
"BvMFV": 8471,
"##mVJpM": 8472,
"##JUmF": 8473,
"##UchV": 8474,
"##xLI": 8475,
"##OzdB": 8476,
"##eG": 186486,
"##cdGYT": 8478,
"dMP": 8479,
"##oGnmL": 8480,
"##LPnUTO": 8481,
"HNOb": 8482,
"##MG": 180591,
"##HUsdXn": 8484,
"hzId": 8485,
"##JOnzX": 8486,
"FO": 199040,
"OxsOb": 8488,
"VOQGz": 8489,
"##mpO": 65627,
"##cxDOxR": 8493,
"##NxXQ": 8494,
"##iFBifw": 8495,
"Vh": 197091,
"gyCQY": 8497,
"##uA": 193385,
"##FTfCkU": 8499,
"##TRvmsi": 8500,
"##dKJ": 101980,
"LbAm": 8502,
"QoAPNa": 8503,
"dbTf": 8504,
"LcAvU": 8505,
"##eP": 140536,
"Za": 195290,
"LAs": 8508,
"IwoLhZ": 8509,
"##Ie": 195474,
"EaDDqK": 8511,
"##jULw": 8513,
"HcXJK": 8514,
"##ySnQGn": 8515,
"##NY": 199371,
"XDnVk": 8517,
"vf": 182316,
"bafIt": 8519,
"pLlvK": 8520,
"##Osplc": 8521,
"gHYaAd": 8522,
"InOZi": 8523,
"##fIsLvv": 8524,
"PwcOft": 8525,
"cMm": 8526,
"##ONNJ": 8527,
"##GzmPbt": 8529,
"kaLFNv": 8530,
"pdd": 8531,
"MtYFTq": 8532,
"NbC": 8533,
"vQDU": 8534,
"HbCJc": 8535,
"VDgf": 8536,
"##WO": 190715,
"gecmy": 8538,
"##mknlxG": 8539,
"##tiP": 8540,
"bTFr": 8541,
"Hxjh": 8542,
"##ng": 184351,
"##QoyFba": 8545,
"gS": 164225,
"DLz": 8547,
"RpQbt": 8548,
"##DPUjJ": 8549,
"##IRQA": 8550,
"##lIhbv": 8551,
"##Ycry": 8552,
"vydvk": 8553,
"OfPGDf": 8554,
"##QGD": 8555,
"Hurhd": 8556,
"Goy": 8557,
"zj": 197382,
"YBX": 8559,
"##hYZ": 8560,
"YDa": 25499,
"zZtDZl": 8562,
"Ryao": 8563,
"##HITGHa": 8564,
"fkBXC": 8566,
"##jmmO": 8567,
"##WJnEi": 8568,
"##au": 187228,
"wfx": 8571,
"##mF": 198868,
"##tg": 197423,
"##zkb": 49125,
"dTc": 8576,
"XIX": 8577,
"##kjWE": 8578,
"##SR": 151897,
"lZJu": 8580,
"jnU": 8581,
"##YlpAK": 8582,
"oJYVV": 8583,
"YoNFml": 8584,
"OJE": 8585,
"lMexoN": 8586,
"##esMI": 8587,
"XNgnyE": 8588,
"kdj": 8589,
"##LSkjz": 8591,
"##xrHp": 8592,
"##tcT": 8593,
"##RlDY": 8594,
"cYVGG": 8595,
"##AZwWrM": 8596,
"Mbbdi": 8597,
"##bDBu": 8598,
"oo": 192070,
"##vxlrm": 8600,
"lh": 197737,
"##tO": 175705,
"##hhIz": 8603,
"##MZlXxn": 8604,
"dXr": 8605,
"##ttocIn": 8606,
"##oHD": 8607,
"kjF": 8608,
"##TeAce": 8609,
"XHZ": 8610,
"BlJEEd": 8611,
"##KicINW": 8612,
"##mIJZo": 8613,
"##LGqK": 8614,
"TIWet": 8615,
"umsMQr": 8616,
"##BMd": 8617,
"kjie": 8618,
"##nwh": 8619,
"##demO": 8620,
"##JKTZJ": 8622,
"##tzyyn": 8623,
"##lQ": 190395,
"##WsAbKT": 8625,
"ACEsd": 8626,
"lGnN": 8627,
"##hxPseJ": 8628,
"CVkO": 8629,
"##GmyolM": 8630,
"##BawE": 8631,
"DGnf": 8634,
"##yap": 8635,
"iUCKj": 8636,
"##NoL": 8637,
"##OaoOQN": 8638,
"HKIbpS": 8639,
"##Mjm": 8640,
"##iH": 195259,
"suEgTv": 8642,
"stY": 8643,
"##Qz": 188712,
"##niO": 8645,
"xsoIJ": 8646,
"##qJdz": 8647,
"PVT": 8648,
"jMWVj": 8649,
"##kf": 191429,
"xdTyDM": 8651,
"##BX": 185800,
"##zqT": 8653,
"##MAnXbD": 8654,
"cK": 150127,
"##dKXzym": 8656,
"HFCSni": 8657,
"BIhCw": 8658,
"fEA": 8659,
"zStc": 8660,
"##ZCMg": 8661,
"vMEh": 8662,
"##MM": 191233,
"EWria": 8664,
"##OJfA": 8665,
"cPcMsl": 8666,
"SlJHNH": 8667,
"XCY": 128860,
"YH": 64800,
"AB": 184302,
"LV": 187563,
"##Ya": 190897,
"wINQ": 8673,
"nR": 183192,
"Re": 86970,
"Pkpdp": 8676,
"##Ruvm": 8677,
"ngb": 8678,
"Vv": 189586,
"##BJiYU": 8680,
"##UCCF": 8681,
"Scm": 167800,
"##pJUUY": 8684,
"##gnp": 8685,
"##Uub": 8686,
"##XtjeK": 8687,
"##TtI": 192621,
"PcuWJ": 8689,
"DfS": 8690,
"##neFXJ": 8691,
"qwf": 8692,
"##GOok": 8693,
"##MkQ": 8694,
"##dyQmc": 8695,
"dhv": 8697,
"##LO": 174612,
"##lhe": 8699,
"##NC": 190015,
"NKW": 29379,
"jwvseq": 8702,
"##Se": 146157,
"##rSgVg": 8704,
"##sLn": 8705,
"##JbgFh": 8706,
"CCYnv": 8707,
"PSA": 8708,
"##wEE": 8710,
"Hfo": 137391,
"VHZ": 8712,
"kvFZr": 8713,
"RWgnQ": 8714,
"YFDa": 8715,
"##hpvmi": 8716,
"##VwEzPe": 8717,
"##buFk": 8718,
"##QbKg": 8719,
"##RTMDAF": 8720,
"zqSg": 8721,
"##hsJ": 8722,
"##FLfiN": 8723,
"##UkoY": 8724,
"YuEW": 8725,
"Yec": 8726,
"SLtBSL": 8727,
"##jlx": 8728,
"##jpnX": 8729,
"##QuByAM": 8731,
"##Xq": 196231,
"##pfzGUm": 8733,
"ps": 171768,
"mCj": 8735,
"Aj": 195305,
"UKuTzl": 8737,
"BBVXbP": 8738,
"XATlKX": 8739,
"##gvWmz": 8740,
"##kjZ": 8741,
"##byT": 8743,
"##jCZ": 8744,
"IFx": 8745,
"##ZgBt": 8746,
"eMOM": 8747,
"##ejsXW": 8748,
"##eIaaH": 8749,
"##ZWRv": 8750,
"RyQ": 8751,
"##fc": 198089,
"dwsjYo": 8753,
"qL": 198902,
"##EndGk": 8755,
"##nuHHhU": 8756,
"##BgaOq": 8757,
"aArS": 8758,
"rrv": 8759,
"##aQdID": 8760,
"##sRBr": 8761,
"hqdne": 8762,
"jasu": 8763,
"##LoH": 8764,
"yQ": 163058,
"##muyoKY": 8766,
"Oxs": 8767,
"##xiujv": 8768,
"LOtP": 8769,
"##UOl": 8770,
"##dhC": 8771,
"##QVu": 8772,
"##ycdplr": 8773,
"##mDnOYH": 8774,
"##jleZk": 8775,
"##dSxZJ": 8776,
"##hI": 158217,
"##JHsg": 8778,
"##ULMOkE": 8779,
"PqQ": 8780,
"bpIDqn": 8781,
"##Wq": 192034,
"##dhDIhp": 8783,
"##Ov": 170398,
"ll": 145135,
"VUSq": 8786,
"##RyCM": 8787,
"##jUkiUs": 8788,
"Yn": 192134,
"oBpkI": 8790,
"##mvKLRA": 8791,
"iVUMEz": 8792,
"Uvf": 8794,
"wber": 8795,
"##modlAB": 8796,
"##eYEIf": 8797,
"UL": 181765,
"##qYQ": 8799,
"vNZ": 8800,
"##oFqtf": 8801,
"Wznx": 8802,
"##qmm": 8803,
"XBX": 8804,
"EIa": 8805,
"ioyn": 8806,
"hTYavH": 8807,
"##TqNE": 8808,
"CTrbic": 8809,
"suTHXF": 8811,
"##srGqc": 8812,
"##xRtxn": 8813,
"Dyoyqm": 8814,
"iXTOJB": 8815,
"ng": 197181,
"##Dv": 183653,
"Xf": 193059,
"##XjZmAA": 8820,
"aQnTj": 8821,
"ycji": 8822,
"dXC": 8823,
"##GPuJ": 8824,
"rl": 198210,
"ODsySX": 8826,
"##aggJbw": 8827,
"##kJgrBR": 8828,
"nWF": 8829,
"UVjmdS": 8830,
"##gNJpK": 8831,
"##gLL": 8832,
"GIM": 179589,
"##LzjS": 8834,
"##vOvVib": 8835,
"noQLit": 8836,
"UTX": 8837,
"##Kv": 186375,
"ShDokz": 8839,
"##Jpk": 8840,
"cUp": 8841,
"aIvqae": 8842,
"##DHGtwF": 8843,
"##vbOOhA": 8844,
"xdmRrj": 8845,
"##MVUc": 8846,
"##JOmRE": 8847,
"Ogl": 8848,
"##nSEdgI": 8849,
"##ZM": 169123,
"boC": 8851,
"##LJwVi": 8852,
"##OvuNV": 8853,
"qhD": 8854,
"##mwCVK": 8855,
"##rbZR": 8856,
"##gh": 181757,
"##IQR": 8858,
"hXNMel": 8859,
"rbUD": 8860,
"##BcUR": 8861,
"##ckRKqe": 8862,
"Dnee": 8863,
"Pr": 179090,
"##SQx": 8865,
"zSS": 8866,
"##yFzcTR": 8867,
"jR": 195707,
"RCtjN": 8870,
"##wnv": 8871,
"MxYkp": 8872,
"##ee": 188411,
"##bbLL": 8874,
"##vCsqd": 8875,
"##CyIAj": 8876,
"##mjnb": 8877,
"Twb": 181041,
"##RGY": 8879,
"##NZ": 191460,
"##hrJ": 8881,
"##iGakj": 8883,
"##ZGSkgM": 8884,
"##GKebc": 8885,
"FpAJ": 8887,
"##PCY": 8889,
"Fyz": 8890,
"AOHM": 8891,
"jb": 185064,
"##Sna": 8893,
"##UGmwA": 8894,
"##alMSF": 8895,
"pUx": 8896,
"aQUDF": 8897,
"##EqwJA": 8898,
"xg": 182310,
"##faG": 8900,
"##VaZKEz": 8901,
"##icQE": 8902,
"Elzlx": 8903,
"##DqIFh": 8904,
"cbXw": 8905,
"MpyCw": 8906,
"##lw": 192029,
"vmYvix": 8908,
"GZ": 192556,
"##olnTjV": 8911,
"TApEN": 8912,
"##ir": 175598,
"QLZs": 8915,
"DMTpkY": 8916,
"##fft": 8917,
"##ZhyZqg": 8918,
"ZgOfNe": 8919,
"ccSm": 8920,
"iAhin": 8921,
"##uJzhQl": 8922,
"##uBbu": 8923,
"##iw": 108020,
"##Lz": 198290,
"##XQM": 8926,
"czrj": 8927,
"mj": 196045,
"CbA": 8929,
"##xIFcwt": 8930,
"##wn": 169186,
"##dLsmm": 8932,
"SAyO": 8933,
"##bzu": 116099,
"##JKGeco": 8935,
"##zFVTY": 8936,
"zotd": 8937,
"##KHsun": 8938,
"##ZgXNDJ": 8939,
"##TEigN": 8940,
"ik": 191985,
"##fMiw": 8942,
"##xjZqv": 8943,
"iuGq": 8944,
"Hd": 189471,
"kfq": 27205,
"##ZkN": 86421,
"##OBeN": 8948,
"##tJfv": 8949,
"##BK": 166238,
"##bbUi": 8951,
"##llQ": 8952,
"SNoYB": 8953,
"##YqI": 8956,
"eZM": 8957,
"QEGoUf": 8958,
"NrHuLO": 8959,
"MxBj": 8960,
"##Ls": 177819,
"zz": 198761,
"Gy": 193687,
"eNt": 8964,
"UaQNwm": 8965,
"Sh": 197928,
"##jY": 167365,
"BHcgJh": 8968,
"##hR": 185958,
"cMKfEs": 8970,
"##ngwLq": 8971,
"##cNcc": 8972,
"nEcYC": 8973,
"Run": 8974,
"##bFJTwV": 8975,
"##roRRfx": 8976,
"xrpEb": 8977,
"##pBme": 8978,
"##vbl": 8979,
"##ZEMA": 8980,
"##ra": 176278,
"##QKD": 8982,
"##sZzI": 8983,
"##WM": 198271,
"xOq": 8985,
"##fBeqi": 8986,
"##wlEwv": 8987,
"CAt": 8988,
"ZXtp": 8989,
"##qbIT": 8990,
"ctTttu": 8991,
"##Dzwn": 8992,
"##WPL": 8993,
"FCEWg": 8994,
"##OPXAR": 8995,
"GE": 190266,
"##ilk": 8997,
"##eNt": 8998,
"inyXNS": 8999,
"##vG": 192649,
"aBIK": 9001,
"##mtKC": 9002,
"OwwL": 9003,
"##WzyIgP": 9004,
"##Qh": 148294,
"aqMsv": 9006,
"##LxFuho": 9007,
"##OG": 177791,
"fIslB": 9009,
"SML": 9010,
"##qJN": 9011,
"##SdSI": 9012,
"SWZ": 9013,
"##dQCKG": 9014,
"##pdMi": 9015,
"##yTSvL": 9016,
"##ZKrYCS": 9017,
"##Px": 152329,
"Lut": 112732,
"##zwHiJ": 9021,
"wuJVoS": 9022,
"aUBm": 9023,
"##SPcYZ": 9024,
"PKK": 79771,
"tQ": 188842,
"##eRN": 9028,
"mMtT": 9029,
"##XvuIYs": 9030,
"JiTJ": 9031,
"bMrBQ": 9032,
"Extv": 9033,
"zqr": 9034,
"##YLL": 45002,
"rFl": 9036,
"##TuIKG": 9037,
"##bDn": 9038,
"##VFr": 9039,
"##kXO": 9040,
"##LUFk": 9041,
"qCPai": 9042,
"##niCID": 9043,
"DKfF": 9044,
"vxE": 9045,
"cLb": 9046,
"uCHWZ": 9047,
"##qWM": 9048,
"##acjcO": 9049,
"wFeB": 9050,
"##Lpl": 9051,
"IePoTV": 9052,
"##lLoadL": 9053,
"MnAts": 9054,
"HjO": 9055,
"eebTfI": 9056,
"HVuuc": 9057,
"##GLy": 9058,
"tIor": 9059,
"##cXN": 87851,
"BeVGr": 9061,
"ZRgu": 9062,
"##zYdQn": 9063,
"##IM": 151886,
"##am": 183575,
"PQumOE": 9066,
"ltG": 9067,
"kSSvx": 9068,
"##USUn": 9069,
"##SzsNfC": 9070,
"VrM": 9071,
"##wkA": 9072,
"eiel": 9073,
"ntzhG": 9074,
"##yxkKo": 9075,
"hCpPfA": 9076,
"JNedz": 9077,
"gOL": 9078,
"CB": 194035,
"Wk": 199649,
"##grHj": 9081,
"LlhUIy": 9082,
"XXGWg": 9083,
"##fvtAh": 9084,
"##zMoV": 9087,
"##BaGr": 9088,
"##ZaQr": 9089,
"ce": 161848,
"VFbjw": 9091,
"##JV": 141485,
"mwD": 24887,
"##AUpcK": 9095,
"##tM": 128165,
"ZRUfr": 9097,
"qjmt": 9098,
"nl": 192205,
"##oh": 188394,
"OhmK": 9101,
"Voj": 9102,
"HOawz": 9103,
"##LCLYm": 9104,
"##zlKHjt": 9105,
"##ulx": 9106,
"##IFN": 9107,
"##AeithG": 9108,
"##Jty": 9109,
"##Ltb": 140380,
"##rDzYia": 9111,
"##hAsl": 9112,
"##DS": 192790,
"CTsFV": 9114,
"##Pg": 141093,
"##nciyXE": 9116,
"XyUw": 9117,
"##ZQO": 9118,
"##CJJECK": 9119,
"RRH": 9121,
"Uhtx": 9122,
"##zbQ": 9123,
"##uQAeCR": 9124,
"AoISZ": 9125,
"vpU": 9127,
"ZlAJLA": 9128,
"fLvN": 9129,
"EBx": 9130,
"##FaKWH": 9131,
"FwO": 9132,
"##MirUEz": 9134,
"Fen": 9135,
"eV": 197447,
"##Vbl": 9137,
"lU": 141238,
"KlC": 9139,
"cqKN": 9140,
"##Mqh": 9141,
"##ISW": 9142,
"xFZBW": 9143,
"oKFl": 9144,
"##TsxNk": 9146,
"MUyL": 9147,
"##MfdAZ": 9148,
"##rtyG": 9150,
"##wjBUZL": 9151,
"Od": 199610,
"cwENe": 9153,
"##LOPlym": 9154,
"##KW": 173403,
"iQweJ": 9156,
"##Zky": 9157,
"##eVSFho": 9158,
"RASLWZ": 9160,
"##iy": 184743,
"##Rpuc": 9162,
"##Qss": 184966,
"##MyRYYu": 9164,
"vmU": 9165,
"##rGe": 9166,
"DyzESw": 9167,
"uKK": 9168,
"fPSCG": 9169,
"##sTr": 9170,
"ecR": 9171,
"##DM": 198779,
"##mFNaut": 9174,
"QsQ": 32333,
"##hkzaK": 9177,
"bkPzCA": 9178,
"nx": 197147,
"##fmrBL": 9180,
"lXn": 78154,
"IyZ": 9183,
"##Upim": 9184,
"Gu": 159971,
"##vI": 195791,
"dLAKD": 9187,
"##OCQ": 116717,
"##ff": 180157,
"IgE": 9191,
"##GqVsAy": 9192,
"MHRn": 9193,
"##MfOWP": 9194,
"LdIHVZ": 9196,
"CLDvS": 9198,
"##Md": 171445,
"Liv": 9200,
"##IXV": 9201,
"##tH": 180917,
"FwGPm": 9203,
"##WfuUr": 9204,
"##zrR": 9205,
"yN": 189299,
"##MEvY": 9207,
"hxJtW": 9208,
"##hyaESz": 9209,
"qGBitL": 9210,
"Vdf": 9211,
"evKpp": 9212,
"MwHf": 9213,
"DjkXMO": 9214,
"##NnmrV": 9215,
"##OsmbYh": 9216,
"Giei": 9217,
"##MSLKny": 9218,
"##JzVz": 9219,
"ZBsd": 9220,
"##jjqBwj": 9221,
"LCh": 9222,
"##xWikn": 9223,
"##vLSX": 9224,
"hSp": 9225,
"PdRW": 9226,
"di": 177692,
"aEj": 182486,
"##AqgS": 9229,
"WWqE": 9231,
"fN": 198293,
"hRrrt": 9234,
"##IqAGdg": 9235,
"lcFMo": 9236,
"##QeLZi": 9237,
"##hjr": 9238,
"##jHIR": 9239,
"RcD": 9240,
"WkbUNR": 9241,
"##hC": 196690,
"##MPISGT": 9243,
"ewX": 9244,
"sZeSWs": 9245,
"##VADcNg": 9246,
"YrQHf": 9247,
"Lru": 9248,
"##UlvKdV": 9250,
"##nLmS": 9251,
"WiN": 9252,
"crQ": 9253,
"Lg": 151531,
"QU": 199974,
"hk": 185389,
"##LFMq": 9257,
"LSwNmv": 9258,
"##PTKdpl": 9259,
"bUOnK": 9260,
"##myq": 9261,
"##lTy": 9263,
"xC": 192101,
"lTqQR": 9265,
"##IQZ": 9266,
"##XvG": 9267,
"pWd": 9269,
"OaKK": 9270,
"##BiiDk": 9271,
"jrSal": 9272,
"mLpYw": 9273,
"sTgSpM": 9274,
"GUk": 77246,
"IcwqhW": 9276,
"##iA": 157449,
"##ymJx": 9278,
"##mDuq": 9279,
"Fs": 178963,
"##AulWo": 9281,
"##jEw": 9282,
"##NzMWL": 9283,
"kzXA": 9284,
"weO": 9285,
"##iSq": 9287,
"##dEcSfV": 9288,
"##lpp": 9289,
"LiG": 9290,
"##WdBh": 9291,
"xJzQ": 9293,
"##yWj": 9294,
"##qnpNs": 9295,
"fU": 185724,
"##vWurG": 9298,
"Mgz": 9299,
"dtS": 9300,
"##jhThcz": 9301,
"##nFVry": 9302,
"##xL": 114603,
"##sXfja": 9304,
"##BnT": 21163,
"FHf": 9306,
"##tiV": 9307,
"##JoJBi": 9308,
"yWS": 9309,
"vYNpTe": 9310,
"##INJJ": 9311,
"JVMf": 9313,
"AnIzIr": 9314,
"PrsiZ": 9315,
"##MIHc": 9316,
"GxDQCp": 9317,
"##Jc": 190276,
"CVcmJI": 9319,
"ZMUyn": 9320,
"oR": 197003,
"##pOcRhO": 9322,
"al": 151505,
"HhLRi": 9325,
"##xzMSx": 9326,
"moJDyV": 9327,
"##Fn": 191408,
"bRwq": 9329,
"DQgbDP": 9330,
"##nC": 192313,
"pGrUl": 9332,
"BFLLBK": 9333,
"##Ra": 157717,
"vZvlDP": 9335,
"Kt": 72601,
"##Lm": 149508,
"##SSqHi": 9338,
"WpdxX": 9339,
"qEct": 9340,
"sgNFSx": 9341,
"##AoV": 9342,
"LEUl": 9343,
"##Ukj": 184089,
"lzsV": 9345,
"qs": 160163,
"pByovN": 9347,
"cEHO": 9348,
"##flwgPG": 9350,
"gBXQ": 9351,
"wrdZ": 9352,
"bJ": 151030,
"##PXZ": 9354,
"nLA": 9355,
"##sxqxm": 9357,
"lSAUvm": 9359,
"##rGzzk": 9360,
"##kAmoDA": 9361,
"Hu": 199024,
"##cyNnc": 9363,
"LpvRq": 9364,
"zJB": 9365,
"##HIRl": 9366,
"irTj": 9367,
"ysb": 9368,
"##OPQ": 9369,
"eXAlD": 9371,
"##VXnhtP": 9372,
"WhPI": 9373,
"##PHpK": 9374,
"##BHGQK": 9375,
"##UbxWc": 9376,
"PJZZpk": 9377,
"##Lsp": 9378,
"fGGBW": 9379,
"ncCLO": 9380,
"##fZtXZ": 9381,
"##rTYy": 9382,
"##XiKV": 9383,
"MqjBti": 9384,
"##eDPQ": 9385,
"##oOXu": 9386,
"##smBLG": 9387,
"##YXzwY": 9388,
"WnB": 9389,
"zJav": 9390,
"##rZ": 183263,
"##hzv": 9392,
"##Yx": 138885,
"##Ujdf": 9394,
"NbQ": 9395,
"Sqns": 9396,
"NsXhd": 9397,
"##ZXAg": 9398,
"##gPJe": 9399,
"cXv": 9400,
"##aRX": 9401,
"##Dyagf": 9402,
"##lYs": 9403,
"bwdSiF": 9404,
"mce": 9405,
"Mc": 136026,
"##NYd": 9407,
"##ccmJzc": 9408,
"opLmt": 9409,
"##IqrWG": 9410,
"LtGW": 9411,
"VFwgG": 9412,
"##EqUad": 9413,
"xahMi": 9414,
"ldN": 9415,
"##CBYi": 9416,
"kNrr": 9417,
"##dRE": 126944,
"OkIvQ": 9419,
"##rZnC": 9421,
"##gLuD": 9422,
"##MSKTP": 9423,
"tr": 128386,
"##yiwsze": 9425,
"PWGXAo": 9427,
"Lk": 171771,
"ipTCft": 9429,
"##QQ": 191869,
"WhIKHV": 9431,
"vigjNB": 9432,
"pYx": 9433,
"##kiev": 9434,
"##CbSQ": 9435,
"##KUTJP": 9436,
"##Iro": 9437,
"xxXkQJ": 9438,
"##Sxu": 27729,
"aIIgxb": 9440,
"##gBGJ": 9441,
"##bmubXR": 9442,
"Qfc": 9443,
"Uq": 189082,
"##NFRE": 9445,
"##FCkWcy": 9446,
"##rWgywf": 9447,
"YT": 195962,
"##YB": 166334,
"hs": 162806,
"QuezLL": 9453,
"SJtZ": 9454,
"bQ": 199946,
"##gNDw": 9456,
"QpXmeb": 9457,
"##eD": 195993,
"KnQODI": 9459,
"xTpen": 9460,
"##hn": 159407,
"##QNm": 9462,
"fS": 97891,
"##oZwPz": 9464,
"xI": 158248,
"IheneL": 9466,
"##Oy": 199143,
"QXLH": 9469,
"OdTsBs": 9470,
"##BMjse": 9471,
"KX": 198384,
"gJKOYp": 9474,
"##UfYN": 9475,
"##Aqf": 9476,
"##LZrBqY": 9477,
"##KeG": 9478,
"zSEw": 9479,
"KHoHGG": 9481,
"SAXiO": 9482,
"JXgVd": 9484,
"##kxuS": 9485,
"Zf": 172421,
"##puuAr": 9487,
"Rrvn": 9488,
"RSuD": 9489,
"GExW": 9490,
"##gXLLpN": 9491,
"##llVcG": 9492,
"nGelXu": 9493,
"##zH": 190748,
"##Bvuul": 9495,
"##iPgm": 9496,
"ZuFfx": 9497,
"##gwZyO": 9498,
"zmnldB": 9499,
"me": 185352,
"##cLbGu": 9501,
"HNEnVV": 9502,
"##zPGNkJ": 9503,
"aNG": 9504,
"fm": 148409,
"##Atme": 9509,
"##QtSnV": 9510,
"rffR": 9511,
"jrrQ": 9512,
"Bx": 197687,
"##vV": 179340,
"PCW": 9515,
"pu": 199351,
"##KrrsU": 9517,
"ecxoo": 9518,
"wmeduG": 9519,
"RzfQ": 9520,
"##OI": 187749,
"IZil": 9522,
"##GrqW": 9523,
"##egT": 9525,
"##acK": 9526,
"mZMn": 9527,
"nU": 191052,
"EUmLvj": 9529,
"yF": 195842,
"##GC": 180867,
"SicxLk": 9532,
"MvQZoZ": 9533,
"ar": 162784,
"##yeNfV": 9535,
"yZzPMw": 9536,
"##ZSFa": 9537,
"qct": 148900,
"##OMHvup": 9539,
"QL": 108215,
"##IA": 193745,
"##ISMfO": 9543,
"TnD": 9544,
"##HjN": 9545,
"##xMs": 9546,
"##DXlIo": 9547,
"Dvix": 9548,
"##xwGvW": 9549,
"vW": 191156,
"Yfhd": 9552,
"##yKP": 9553,
"rYbN": 9554,
"sgSXf": 9555,
"MMiia": 9556,
"IYqZ": 9557,
"vw": 177181,
"xrUiO": 9561,
"mFIBg": 9562,
"##WYuSc": 9563,
"##cAwIc": 9564,
"HrLzz": 9565,
"COO": 68248,
"##ZD": 188086,
"##ONsiBF": 9568,
"VhyMT": 9569,
"##EuUyVo": 9570,
"PxkeNS": 9571,
"##ZZEF": 9572,
"jbYlh": 9573,
"vwu": 73653,
"##lPDZx": 9575,
"##pE": 195493,
"##QYp": 9577,
"QgLn": 9578,
"##NYw": 9579,
"xNGb": 9580,
"LbzOr": 9581,
"pMSICE": 9582,
"##NB": 197503,
"##PlRg": 9584,
"##BARPK": 9585,
"pJhmcr": 9586,
"Ha": 181064,
"##PyF": 9588,
"##WMQJbu": 9589,
"##IaHPTI": 9590,
"##Of": 190746,
"##aXY": 9592,
"##utRJV": 9593,
"pmE": 9594,
"##BgBzf": 9595,
"rLbb": 9596,
"ZD": 172524,
"##rtoKnN": 9598,
"sXn": 9599,
"IOs": 9600,
"##fjf": 9601,
"##lYX": 9602,
"vZBAP": 9603,
"##pA": 170591,
"rysBLz": 9605,
"##vPtLG": 9606,
"##ZV": 197785,
"##RSkW": 9608,
"uHJMT": 9609,
"PWIIp": 9610,
"QQ": 192276,
"##KxOq": 9612,
"HMORt": 9613,
"LP": 181363,
"vK": 193860,
"##RuyDND": 9617,
"##adRfh": 9618,
"##iCTzzQ": 9619,
"qQn": 9620,
"TIHGm": 9622,
"SUfc": 9623,
"##JCn": 9624,
"iLILg": 9625,
"qQT": 9626,
"NPJX": 9627,
"##eUgarI": 9628,
"egLNI": 9629,
"##Rno": 9630,
"##VLAdE": 9631,
"##gVjHfA": 9632,
"aH": 186697,
"ciscaD": 9634,
"ucUIa": 9635,
"##peiVpY": 9636,
"##ArkNY": 9637,
"##GvbZG": 9638,
"Xsc": 9639,
"##DOr": 18451,
"##mCczR": 9641,
"##NbYyxO": 9642,
"##NZLWx": 9643,
"##VMlrZL": 9644,
"LOEmQ": 9645,
"##subMbw": 9646,
"##RsSkYy": 9647,
"##sT": 191801,
"pcYJW": 9649,
"##XmD": 9650,
"emjFDh": 9651,
"fZf": 9652,
"RPNC": 9653,
"ZrAr": 9655,
"RZET": 9656,
"KZHP": 9657,
"##Tnbr": 9658,
"Mkurn": 9659,
"VvA": 175638,
"##Otu": 9661,
"hug": 9662,
"##MOGO": 9663,
"cIzi": 9664,
"VSxYtw": 9665,
"NWS": 9666,
"##pnvJiR": 9667,
"hBCCgn": 9668,
"##UNyA": 9669,
"##xqHUeb": 9670,
"lXL": 9671,
"##BQOop": 9672,
"Zki": 9673,
"##yWKH": 9674,
"DWa": 9675,
"wzbJxi": 9676,
"##asdz": 9677,
"JKX": 9678,
"CZnQMW": 9679,
"GWKSe": 9680,
"##MxkpCU": 9681,
"jtTak": 9682,
"RVkxk": 9683,
"pFbQfi": 9686,
"##XXWc": 9687,
"##OSc": 9688,
"##axyVtf": 9689,
"##LCcE": 9690,
"ph": 158254,
"dlr": 9692,
"wrcr": 9693,
"sA": 178943,
"##Py": 194769,
"##iXTlwF": 9697,
"##IeiKx": 9698,
"mGVMoP": 9699,
"##YWHcNT": 9700,
"ITjb": 9701,
"##BPPbU": 9702,
"AEO": 187504,
"Yyboeu": 9704,
"EbYP": 9705,
"KI": 185570,
"NWrjGv": 9708,
"##YHuZ": 9709,
"##ov": 186586,
"cH": 178068,
"##exgWc": 9712,
"dyuLc": 9714,
"BytEG": 9715,
"##lKO": 9716,
"##xQmil": 9717,
"oX": 189047,
"qkXAe": 9720,
"##Va": 193382,
"mZ": 171872,
"##xtyiG": 9723,
"##IXsCfu": 9724,
"kBDVjf": 9725,
"##bSyHax": 9726,
"wrKkO": 9727,
"##Sh": 195608,
"##OjNXiX": 9729,
"##DLzo": 9730,
"nacQeD": 9731,
"TNbjUv": 9732,
"##aQQiM": 9733,
"##UCmpwz": 9734,
"zaNuRe": 9735,
"zbbN": 9736,
"kn": 161128,
"PEUX": 9738,
"##cJ": 179867,
"##bw": 178333,
"Ktmgmt": 9741,
"um": 183585,
"iLjyTB": 9743,
"##SBIRs": 9744,
"##nk": 199708,
"##GfbRlw": 9746,
"mXrQ": 9747,
"EnG": 9748,
"Dqg": 9749,
"##EbuY": 9750,
"##aSNSBZ": 9751,
"##ooO": 9752,
"##jzXq": 9753,
"##CNV": 9754,
"##FtCOgv": 9755,
"##BKNx": 9756,
"##zmfs": 9757,
"cPwwY": 9758,
"##fGpS": 9759,
"##Ldphm": 9760,
"##Yhn": 9761,
"Eu": 136635,
"##ESjza": 9764,
"ndn": 70572,
"##KdMoQp": 9766,
"zpqRR": 9767,
"##axw": 9768,
"gYL": 57175,
"##NHDxh": 9770,
"gSZu": 9771,
"##xcaX": 9772,
"nMipD": 9773,
"##NK": 187103,
"##Pt": 117872,
"##mR": 199832,
"##lLgr": 9777,
"MMQc": 9778,
"##bjYjW": 9779,
"##qiXF": 9780,
"##XeiPHO": 9781,
"##Pj": 199062,
"##maw": 9783,
"##Heo": 9784,
"AAY": 9785,
"##niUAwn": 9786,
"##XG": 183708,
"HA": 141811,
"ZONK": 9790,
"GLeVUs": 9791,
"##AoN": 9793,
"##Yvcy": 9794,
"##RHL": 128578,
"IDI": 9796,
"##nlbl": 9797,
"##Hof": 9798,
"Ub": 192959,
"aHv": 9800,
"##qn": 191090,
"##Rf": 193128,
"ucOy": 9803,
"##Twg": 9804,
"mE": 188989,
"##Bto": 9806,
"MwcU": 9807,
"oyCKeX": 9808,
"RUM": 9809,
"##ZizOvf": 9810,
"JU": 195612,
"lWJ": 9812,
"##Hgq": 174048,
"eyjkVG": 9814,
"cv": 181186,
"QgZ": 9816,
"WH": 158068,
"##CZ": 199123,
"##Hc": 162073,
"##Yvk": 9820,
"cRHGz": 9821,
"##kxriAO": 9822,
"##cL": 177874,
"##AaAAf": 9824,
"##WAEJ": 9826,
"##YloMGm": 9827,
"##HIclr": 9828,
"##tZEa": 9829,
"##Mc": 183664,
"##HodJH": 9831,
"##udXQ": 9832,
"MOmMML": 9833,
"XpWK": 9834,
"KtYV": 9835,
"sy": 150787,
"##vH": 162235,
"qVAdu": 9839,
"##EzVjSi": 9840,
"kXv": 9841,
"##jUpjF": 9842,
"vjyXK": 9845,
"QxdHwF": 9846,
"##Gihu": 9847,
"upIRg": 9848,
"pjG": 9849,
"Jwf": 9850,
"##GkhRUg": 9851,
"##AClWdP": 9852,
"Qv": 188783,
"##fXhZJ": 9854,
"##tGQagG": 9855,
"##PxNc": 9856,
"##MCOrCf": 9857,
"##Fo": 192335,
"##owOz": 9859,
"##sYB": 9860,
"##bXgQbx": 9861,
"ijJGq": 9862,
"##GL": 165478,
"##jaaGB": 9864,
"##lvl": 9865,
"fSIR": 9866,
"##aJcX": 9867,
"WZ": 169563,
"##KEsNbT": 9870,
"PZX": 9871,
"ZNX": 9872,
"oGF": 9873,
"SunYR": 9874,
"IJxLCH": 9875,
"##caezr": 9876,
"##fhUWV": 9877,
"NJk": 9878,
"aoyVhC": 9879,
"nrAB": 9880,
"xNn": 110336,
"##ftzuI": 9882,
"pRUCuU": 9883,
"##ewIQ": 9884,
"LULCA": 9885,
"##uaRfWi": 9886,
"##jkBwb": 9887,
"kxsv": 9888,
"##xbRIL": 9889,
"Ich": 9890,
"hgbk": 9891,
"xHx": 9892,
"EvGfeo": 9893,
"##FJNpI": 9894,
"##OX": 187196,
"OdJ": 9896,
"bzwcZ": 9897,
"##UeZE": 9898,
"##WK": 169744,
"VHCF": 9900,
"##Knb": 160477,
"##BvTHbP": 9902,
"##Zbnxp": 9903,
"KML": 9904,
"eOyl": 9905,
"##jU": 176754,
"dJP": 9907,
"hEnPW": 9908,
"RPY": 9909,
"mdR": 9910,
"##TJbgRJ": 9911,
"##FLb": 9912,
"##os": 41899,
"##jtlZ": 9914,
"##xaYCE": 9915,
"##qW": 195930,
"GiR": 9917,
"##EXbyLg": 9918,
"TnCZ": 9919,
"##jxAdA": 9920,
"##CL": 181445,
"##qlTN": 9922,
"FtkXiW": 9923,
"##XH": 155611,
"YydKYp": 9925,
"TEe": 9926,
"##KfbkIo": 9927,
"KXaUb": 9928,
"MHpit": 9929,
"If": 192842,
"##teGz": 9931,
"pcN": 9932,
"##bDdXO": 9933,
"qKCG": 9934,
"DbaP": 9935,
"##mKnN": 9936,
"##nmYphH": 9937,
"##MZizcE": 9938,
"##XszAs": 9939,
"##wqxKEL": 9940,
"##zjc": 9941,
"##xJD": 9942,
"Merk": 9943,
"##IholqP": 9944,
"##cCPpP": 9945,
"btc": 9946,
"##fnlFaK": 9947,
"##PQdQZf": 9948,
"##pqMX": 9949,
"##oopP": 9950,
"YwbRc": 9951,
"dCBHg": 9952,
"nIU": 9954,
"##Glrn": 9955,
"##ylCw": 9957,
"GEODLf": 9958,
"jCtI": 9959,
"##iaTexD": 9960,
"##JXQ": 9961,
"##zpQ": 9962,
"##Zn": 156455,
"##KabTNo": 9964,
"##YhWSJI": 9966,
"PyR": 9967,
"##PGCz": 9968,
"##vxsFHY": 9969,
"##IVEmQM": 9970,
"##uE": 135890,
"##OFTCjh": 9972,
"##Tgc": 119113,
"##YbJ": 35610,
"RDA": 9975,
"JnoKR": 9976,
"##diPMgp": 9978,
"##Thqg": 9979,
"atmS": 9980,
"KlMicy": 9981,
"JhuzRM": 9982,
"##yBVs": 9983,
"##tTi": 9984,
"WiA": 9986,
"##SrY": 9987,
"##utPQnL": 9988,
"##Jkut": 9989,
"##dS": 184456,
"IYokB": 9991,
"FQSTG": 9992,
"MXvmMV": 9993,
"##EVSsSU": 9994,
"##LHYu": 9995,
"dAM": 69050,
"byGjje": 9999,
"##kdeQ": 10000,
"YAADJY": 10001,
"##tRQqb": 10002,
"RL": 195921,
"##mJXolx": 10004,
"##GPiNIY": 10005,
"Il": 195408,
"ybv": 10008,
"CQO": 116836,
"##hKrC": 10010,
"YDfgs": 10011,
"izAFT": 10012,
"##pxvKW": 10013,
"onRn": 10014,
"RVR": 10015,
"ltQIW": 10016,
"iAYJE": 10017,
"##vp": 188260,
"##zbBX": 10019,
"##xH": 186418,
"cSveR": 10021,
"##IK": 185044,
"taaJ": 10023,
"##KviSG": 10024,
"bC": 199140,
"##xCjDr": 10026,
"MYE": 10027,
"##qUO": 10028,
"##LGpfD": 10029,
"od": 183026,
"ZOWFW": 10031,
"##lI": 186803,
"udfl": 10033,
"##xUR": 10034,
"OWk": 10035,
"##uFjcAM": 10036,
"##HJkA": 10037,
"KKE": 10038,
"SGn": 10039,
"TtPDV": 10040,
"##UQGL": 10041,
"##Dx": 192038,
"eGU": 10043,
"xkPLB": 10044,
"##nwu": 99601,
"##RqrH": 10047,
"mNMLtu": 10048,
"aJ": 187937,
"rGF": 10050,
"FS": 153901,
"Rwt": 10052,
"EQPLlc": 10053,
"EcMQQ": 10054,
"##wgzr": 10055,
"eqVeDW": 10056,
"##ylaQd": 10057,
"lYpJ": 10058,
"##Ye": 197338,
"nsWo": 10060,
"TuY": 10061,
"ySAU": 10063,
"OuQoH": 10064,
"##oXZNan": 10065,
"##vib": 10066,
"##IavS": 10067,
"##Kp": 193476,
"baLZE": 10069,
"##zNCm": 10070,
"itB": 10071,
"##AIGN": 10072,
"IrKT": 10073,
"cUbOvV": 10074,
"##nifc": 10075,
"##PtG": 10076,
"ijPMAL": 10077,
"FR": 144067,
"##vYXfCt": 10079,
"##Lmta": 10080,
"##IdItw": 10081,
"LxkmU": 10082,
"zdL": 191638,
"##NIuzt": 10084,
"##hchx": 10085,
"##LSP": 10086,
"ZxLrz": 10087,
"FXTqUu": 10088,
"YJwqVi": 10090,
"##aS": 196715,
"wrt": 10093,
"##ysgbpq": 10094,
"##btIX": 10095,
"LKTUZJ": 10096,
"sNF": 10097,
"htKkzv": 10098,
"kT": 163091,
"ymHp": 10100,
"pLDN": 10101,
"LePNhW": 10102,
"##CzRF": 10103,
"##DUq": 169751,
"KHIwpc": 10106,
"##uFsj": 10108,
"##MqS": 10109,
"##RbvyQ": 10110,
"##XQ": 185742,
"##CvUgQU": 10112,
"##EruX": 10113,
"oPME": 10114,
"##DEEhR": 10115,
"##zQa": 10116,
"##NNEvbh": 10117,
"##czYk": 10118,
"GIyX": 10119,
"ogyus": 10120,
"lJnHY": 10121,
"kr": 50937,
"vqUqaM": 10123,
"BCC": 10125,
"sDzCDt": 10126,
"##odgUY": 10127,
"VeC": 10128,
"Ejk": 10129,
"zOU": 10130,
"JqPb": 10131,
"##Hre": 10132,
"##xJvon": 10133,
"BcC": 10134,
"##Psu": 10135,
"ZWD": 10136,
"##UDzRaj": 10137,
"FXxv": 10138,
"WQl": 10140,
"PEN": 102081,
"IoNAtj": 10142,
"cKcMT": 10143,
"##GXMTDr": 10144,
"khQ": 10145,
"PFYTL": 10146,
"AyZHvP": 10147,
"##TeGXr": 10148,
"##ud": 178242,
"##ZUGmPL": 10150,
"##fGRD": 10151,
"lQ": 169766,
"##oamG": 10153,
"##aiDUV": 10154,
"QMRWJ": 10155,
"rgZAET": 10157,
"##zE": 148898,
"XBindL": 10159,
"mPVQDx": 10160,
"iU": 160439,
"EB": 154564,
"zJQg": 10163,
"##BXKiuN": 10164,
"FL": 169704,
"##eM": 176015,
"##UvF": 10167,
"nxWs": 10168,
"##fnZVf": 10169,
"##uHLM": 10170,
"##ZHZ": 10171,
"zvfZ": 10172,
"zBq": 10174,
"PcP": 10175,
"##lT": 171696,
"##QLKV": 10177,
"PFclF": 10178,
"##dleans": 10179,
"##pSCH": 10180,
"rw": 183822,
"Nc": 194269,
"jAzo": 10183,
"##vg": 167935,
"##icvu": 10185,
"AC": 173531,
"vOUTuh": 10188,
"##Ch": 180576,
"Lw": 196876,
"##KjGLO": 10192,
"tnOW": 10193,
"##kXRZJn": 10194,
"##ViubEs": 10195,
"##LVNA": 10196,
"##KXmWNo": 10197,
"##ZEoPv": 10198,
"##REfO": 10199,
"TjYq": 10200,
"Iefl": 10201,
"##bKMf": 10202,
"wqg": 10203,
"##lejRg": 10204,
"##NPJ": 10205,
"##nkX": 10207,
"##Ah": 199488,
"bODO": 10209,
"SKD": 10210,
"##nsw": 10211,
"GdxO": 10212,
"##WUC": 10213,
"##qIoWf": 10214,
"##eZG": 10215,
"uHv": 10216,
"##Lcvnxa": 10217,
"##cQrhQB": 10218,
"VIxhv": 10219,
"nOPm": 10220,
"##WtkgH": 10221,
"##NsfH": 10222,
"NQ": 193724,
"EqcML": 10224,
"##fovoXA": 10225,
"##ejmtA": 10226,
"jMB": 10227,
"gyCrx": 10228,
"XrTAgI": 10229,
"##RMSZQp": 10230,
"cOvq": 10232,
"zVeTpL": 10233,
"##qpNY": 10235,
"##Bveveh": 10236,
"##ZcEE": 10237,
"##EGuk": 10238,
"##koGnh": 10239,
"CTKzV": 10240,
"##bsT": 10241,
"OzUx": 10243,
"##lqh": 10245,
"##yPsvpv": 10246,
"XxtCDX": 10247,
"AwKiD": 10248,
"##DWTMgo": 10249,
"Jb": 176142,
"baD": 10251,
"PmTwnb": 10252,
"lIWed": 10253,
"yRnHa": 10254,
"##fz": 164693,
"HtKIZ": 10256,
"##GiZLEL": 10257,
"mGY": 10258,
"NgbbZv": 10259,
"gAE": 189857,
"YfpJX": 10261,
"##gbosH": 10262,
"XFaSZ": 10263,
"gBw": 10264,
"##ogn": 10265,
"DmX": 10266,
"tHuYyL": 10267,
"##XrIgpP": 10268,
"dn": 193116,
"##CiKZA": 10270,
"##OYMoxs": 10271,
"##zNwBNm": 10272,
"YuXN": 10273,
"##tB": 197285,
"adZFv": 10275,
"MKg": 10276,
"puH": 10277,
"lWKCD": 10278,
"oMiJV": 10279,
"Tw": 190140,
"cQZmT": 10282,
"##zQZGQP": 10283,
"##ysB": 10284,
"##oHZblf": 10285,
"wST": 10286,
"KLMko": 10287,
"iGjeXD": 10289,
"##GfZZy": 10290,
"##pFYO": 10291,
"DFKxsZ": 10292,
"BTgxC": 10294,
"##reToZh": 10295,
"##qdyx": 10296,
"qlcv": 10297,
"UXn": 10298,
"OxZ": 10299,
"##OToVx": 10300,
"##nJvA": 10301,
"skQsgi": 10302,
"##MVBys": 10303,
"LVnV": 10304,
"##mI": 181797,
"GRFG": 10306,
"UBV": 10307,
"##QeFiZ": 10308,
"##JN": 86659,
"##zviT": 10310,
"##dKfFlC": 10311,
"##qzezBo": 10312,
"##Tqyl": 10313,
"##XBAoGt": 10314,
"##FJt": 10315,
"##uHwOeh": 10316,
"##WwV": 10317,
"kGerU": 10318,
"qMScYv": 10319,
"oyx": 10320,
"##NyI": 10321,
"##QiOJ": 10322,
"OjGYw": 10323,
"##Sjt": 10324,
"vBZcXb": 10325,
"HaLwH": 10326,
"##yMNDo": 10327,
"##dxW": 10328,
"##iukb": 10329,
"##bEZ": 10330,
"##bH": 128779,
"##bsRP": 10332,
"vgVVb": 10333,
"SofGJ": 10334,
"##FMDBM": 10335,
"ix": 131652,
"##wZ": 194457,
"##NUHar": 10339,
"KjWF": 10340,
"elDD": 10341,
"tEfnxy": 10343,
"##BN": 190648,
"ISssfQ": 10346,
"##uMf": 10347,
"GrSPrb": 10348,
"##JMQp": 10349,
"Aip": 10350,
"PNGup": 10351,
"oydg": 10352,
"##JWuvSF": 10353,
"VHff": 10354,
"##oRL": 10355,
"eYtOC": 10356,
"iIB": 10357,
"euaq": 10358,
"UKZF": 10359,
"##APDDN": 10360,
"nXmOdq": 10361,
"##EAlu": 10362,
"##atZ": 10363,
"##NvzIk": 10364,
"aAuZMv": 10365,
"ckCaYk": 10366,
"##Sqoia": 10367,
"##tPQQyU": 10368,
"uOdLqW": 10369,
"##FIE": 10370,
"##fjBHNJ": 10371,
"##AlsyR": 10372,
"##lzQm": 10373,
"##uBy": 10374,
"##MRHGA": 10375,
"HsrZx": 10376,
"##KshmCF": 10377,
"qaHkNG": 10378,
"##YbND": 10379,
"##WkXYTx": 10380,
"##KMy": 194775,
"##tVXZZ": 10382,
"##trInqG": 10383,
"jPTbU": 10384,
"##VTnAjk": 10385,
"hNSV": 10386,
"##OouQU": 10387,
"ohEAy": 10388,
"ebtK": 10390,
"yFUPix": 10391,
"Abxof": 10392,
"ZZuJT": 10393,
"##GGI": 10394,
"kY": 198877,
"##KGj": 10396,
"UKBqj": 10397,
"QpgQ": 10398,
"oXcBk": 10399,
"##XPva": 10400,
"##vCus": 10401,
"##igEhEq": 10402,
"##ZZy": 10403,
"dzK": 10404,
"RfZ": 10405,
"pvA": 10407,
"##dR": 163473,
"##XlUd": 10409,
"szhtON": 10410,
"##jgRv": 10411,
"hogvu": 10412,
"UI": 187991,
"LrUV": 10414,
"gK": 149088,
"tk": 197886,
"##JYcH": 10417,
"ZgJGEh": 10418,
"qCAzR": 10419,
"sqBsQ": 10420,
"##jXuX": 10421,
"nGClH": 10422,
"ZwQgFZ": 10423,
"EpAu": 10424,
"##iyak": 10425,
"##IwYzGF": 10426,
"sbrr": 10427,
"##cl": 162841,
"##Pqm": 10429,
"mWMcjg": 10430,
"qTSxij": 10432,
"##Cdp": 122227,
"##pdOWD": 10435,
"##oSwJ": 10436,
"##VAe": 10437,
"Zxi": 10438,
"bfjX": 10439,
"wmIoia": 10440,
"oIMfN": 10441,
"dfKL": 10442,
"RhG": 10443,
"##uUFTO": 10444,
"NyLAy": 10445,
"##hpL": 10446,
"##MIosA": 10447,
"kDJKI": 10448,
"sLWXVB": 10449,
"JNT": 10450,
"OqD": 10451,
"##jPWYie": 10452,
"FlQzN": 10453,
"##hi": 151788,
"sApeGq": 10455,
"lJh": 10456,
"bNyRo": 10457,
"uaGN": 10458,
"##KMFuLg": 10459,
"Rgb": 10460,
"kcL": 10461,
"Pq": 172411,
"Vt": 199007,
"oFWzs": 10464,
"grI": 10465,
"fhU": 10466,
"##CskI": 10467,
"cfBL": 10468,
"yv": 179179,
"##LXQ": 10470,
"gWCW": 10471,
"##RRgrz": 10472,
"YD": 96479,
"##Slag": 10474,
"##gie": 10475,
"##lMC": 10476,
"snIZoE": 10477,
"YxAV": 10478,
"exv": 10479,
"##uXo": 10480,
"nVaL": 10481,
"##zJvAN": 10482,
"##XbMO": 10483,
"aGm": 181994,
"##xy": 187106,
"##EeVMFR": 10486,
"##BKa": 10488,
"##VAE": 10490,
"GZxB": 10491,
"##xmEzC": 10492,
"##jdux": 10493,
"jEWS": 10494,
"##SNBhY": 10495,
"uaUiR": 10496,
"##Kytkf": 10497,
"qchf": 10498,
"LTGo": 10499,
"HzAmxu": 10500,
"##zch": 10501,
"ZH": 156723,
"##kSe": 10503,
"Km": 189426,
"##BtHIS": 10505,
"##bDQeO": 10506,
"##mmyFD": 10507,
"tZL": 10508,
"fqUdVh": 10510,
"##HF": 178045,
"##meZ": 10513,
"##kfC": 10514,
"neTMB": 10515,
"##ngY": 10516,
"##GVflhe": 10517,
"##zvKCza": 10518,
"##xJZ": 10519,
"NNqymK": 10521,
"##Esg": 10522,
"hTE": 10523,
"PXOK": 10525,
"##YK": 184433,
"##yOCnRe": 10527,
"##bnwR": 10528,
"##joGw": 10531,
"##OpcnwI": 10532,
"##FvabD": 10533,
"ipp": 10534,
"##rtTcKh": 10535,
"##KsO": 10536,
"##qeJ": 10537,
"##PTnFO": 10538,
"DrSo": 10539,
"Ijiksb": 10540,
"BJiNK": 10541,
"##xcwwWV": 10542,
"##BAH": 10543,
"xxTE": 10544,
"eFjc": 10545,
"##LzLt": 10546,
"##jRZ": 46358,
"##RhLoKv": 10548,
"EPad": 10549,
"##OmPIg": 10550,
"unid": 10551,
"##wsm": 10552,
"##xnzJ": 10553,
"##Amv": 164508,
"##dof": 10555,
"##JR": 180625,
"lVolH": 10557,
"Gs": 193588,
"cth": 18626,
"##hyBBJg": 10561,
"##HZ": 148874,
"##CdK": 10563,
"aVOOy": 10564,
"oGM": 10565,
"##EH": 197185,
"Aab": 10568,
"##PD": 151223,
"##shR": 10570,
"##sv": 175225,
"##riGo": 10574,
"##HWAO": 10575,
"##mmUF": 10576,
"Fd": 186879,
"##qCJxX": 10578,
"IkjcEh": 10580,
"##MQkM": 10581,
"JA": 173919,
"##VHL": 10583,
"##Xro": 10584,
"AOcA": 10585,
"hRIV": 10586,
"Glz": 70286,
"##Lh": 157687,
"FtD": 10589,
"##ozWKa": 10590,
"##zU": 162379,
"fnZdXj": 10592,
"UyupuI": 10593,
"agZx": 10594,
"BgXDxY": 10595,
"bdO": 10596,
"MqC": 10597,
"##RRLkPc": 10598,
"jyJObH": 10600,
"fji": 10601,
"KdRkNE": 10602,
"Vd": 188596,
"##ei": 198898,
"##yxZC": 10606,
"vzvU": 10607,
"##afcc": 10608,
"qLR": 10609,
"##RlDmY": 10610,
"##BYHgx": 10611,
"fFLKS": 10612,
"Pnau": 10613,
"##XxXMu": 10614,
"##HoiS": 10615,
"ZxaVyo": 10616,
"ZybT": 10617,
"jcREI": 10618,
"NAcV": 10619,
"##jx": 183187,
"##Ti": 188507,
"##iFd": 10622,
"RIBmv": 10623,
"##liVvNp": 10624,
"Nvd": 10625,
"##qnmi": 10626,
"##UhIm": 10627,
"##pHy": 10628,
"POv": 10629,
"eHS": 10630,
"##DPXicg": 10631,
"##SGGF": 10632,
"tNNomz": 10633,
"##TFUhs": 10634,
"OTkIR": 10635,
"ZhjRDO": 10636,
"##ZF": 185845,
"##BBVcUy": 10639,
"##HwzOR": 10640,
"##tjk": 10641,
"XZhyWw": 10642,
"##dwSP": 10643,
"YEl": 10644,
"Ic": 148619,
"##gzucL": 10646,
"##wFeLJ": 10647,
"##IACnK": 10648,
"akxB": 10649,
"##Mqd": 76793,
"##UVNj": 10651,
"HuykrA": 10652,
"pmjz": 10653,
"##XFsCUa": 10654,
"hY": 198256,
"kbBNuA": 10656,
"##kafsQ": 10657,
"##wM": 171359,
"##PBC": 10659,
"##Uxm": 10661,
"##Dpxp": 10662,
"##KOImBC": 10663,
"##wdoMzK": 10664,
"##YuCEv": 10665,
"##Oqs": 10666,
"dgGxI": 10667,
"phGDEE": 10668,
"##ncsg": 10669,
"##HzvrlC": 10670,
"wC": 171756,
"##dwZTi": 10672,
"##FBvcka": 10673,
"VqcteK": 10674,
"XaeQCm": 10675,
"##xzl": 10676,
"##yVI": 10678,
"YOArj": 10680,
"EKu": 10681,
"##urtM": 10682,
"##TlVH": 10683,
"##jQQ": 10684,
"##knJoOE": 10685,
"##JGrok": 10686,
"##MvLy": 10687,
"##axh": 10688,
"##nlR": 10689,
"##DFjjj": 10690,
"##wzIuI": 10691,
"##Ixe": 10692,
"##EJRb": 10693,
"YZJB": 10694,
"DDqtxU": 10695,
"Bto": 10696,
"EqTLm": 10697,
"xfJzF": 10698,
"OwGOY": 10699,
"##Yyd": 10700,
"hduxpJ": 10701,
"ybeDF": 10702,
"rigY": 10703,
"##Rw": 190285,
"Gbo": 10705,
"##sg": 196327,
"##aLnN": 10707,
"##kdKxg": 10708,
"##HyyBq": 10710,
"##hITfe": 10711,
"ZnA": 10712,
"##kuG": 10713,
"##OVV": 10714,
"##HreU": 10715,
"XeYI": 10716,
"##Mkquw": 10717,
"##avXG": 10718,
"rXlIrO": 10719,
"##nHsLKb": 10720,
"##ldbQW": 10721,
"##RjKaX": 10722,
"##RB": 182321,
"##PyMiW": 10724,
"##CJeZIT": 10725,
"##jOd": 10726,
"Hg": 172100,
"Myg": 10728,
"##qIx": 10729,
"##CZoX": 10730,
"##pVG": 10731,
"##ziLVa": 10732,
"aZCGX": 10734,
"##FYQ": 10735,
"##qdTd": 10736,
"##at": 193561,
"cm": 162849,
"##rHT": 10740,
"pCtr": 10741,
"##zNS": 10742,
"##AOexfX": 10743,
"dfkk": 10744,
"##AMd": 10745,
"Rjk": 81050,
"bf": 179789,
"bD": 106804,
"WZu": 10749,
"qUGC": 10750,
"ceEnL": 10751,
"qeSOr": 10752,
"##IVFsFg": 10753,
"GTenYD": 10755,
"go": 191871,
"JkZEs": 10757,
"rnb": 10758,
"WTTZ": 10759,
"VgLDU": 10760,
"uX": 187392,
"##WhAny": 10762,
"##gqy": 10763,
"kQEQ": 10764,
"##nY": 184030,
"vRkQQP": 10766,
"Ig": 187732,
"ZYWA": 10768,
"vAjS": 10769,
"oTOb": 10770,
"##zY": 192136,
"##BsBk": 10772,
"##do": 159383,
"QszzZL": 10774,
"GbIVx": 10775,
"##SaH": 10776,
"nVVED": 10777,
"##SqrbG": 10778,
"##ehn": 10779,
"plXxc": 10780,
"eoxk": 10781,
"##KuWv": 10782,
"KEGp": 10783,
"##tSGIq": 10784,
"SaD": 10785,
"##tWkLu": 10786,
"##UfGh": 10787,
"##TYlzmI": 10788,
"WVSeQF": 10789,
"aXPphE": 10790,
"XLf": 10791,
"yiQ": 10792,
"##YA": 167710,
"##pdU": 87176,
"##huefiB": 10796,
"MPn": 10797,
"##CTsB": 10798,
"##RsYkRz": 10799,
"##UjNeAA": 10800,
"afiY": 10801,
"oa": 178371,
"PcX": 10804,
"##NNCM": 10805,
"##gDnXPB": 10807,
"##QKXiu": 10808,
"mlefBH": 10809,
"Tn": 178874,
"##wxYO": 10811,
"FZuv": 10812,
"##rGI": 10813,
"##oY": 121507,
"zYO": 10815,
"Tr": 158267,
"##bWvOe": 10817,
"itsA": 10819,
"##kfbE": 10820,
"##OvaKu": 10821,
"lTs": 10822,
"ifvh": 10823,
"DhwKz": 10824,
"CCMg": 10825,
"HbOo": 10826,
"##iOsQ": 10827,
"QN": 196675,
"GAbOuN": 10829,
"Nh": 181067,
"qqze": 10831,
"##cJx": 10832,
"dFY": 10833,
"bFTAU": 10834,
"##DmBlA": 10835,
"sDl": 10836,
"SnYKCo": 10837,
"TH": 185769,
"fAxd": 10839,
"##PUtM": 10840,
"AEt": 10841,
"Wocl": 10842,
"CDgBt": 10843,
"HQU": 10844,
"##dPJ": 10845,
"##UWTHg": 10846,
"##bDAqDD": 10847,
"etvm": 155709,
"zUUbl": 10849,
"Ptdb": 10850,
"##ilJEh": 10851,
"##zT": 156320,
"MUIClB": 10853,
"NJbBI": 10854,
"AZYIC": 10855,
"DGSnse": 10856,
"mHO": 10857,
"##SEqaT": 10858,
"mF": 195445,
"VH": 185512,
"##anPS": 10862,
"##ZyXTgR": 10864,
"##NZoP": 10865,
"##OwluF": 10866,
"##PKKS": 10867,
"MKW": 10869,
"Fk": 189902,
"nmIE": 10872,
"##OeBuLw": 10873,
"vrlX": 10874,
"zRubnF": 10875,
"##grq": 10876,
"PvL": 10877,
"##CpX": 10878,
"EOMJoT": 10879,
"##RJW": 10880,
"##HNqCRl": 10881,
"##zoD": 10882,
"TE": 189312,
"##nAhm": 10884,
"##Ekz": 10885,
"sbWHc": 10886,
"##xQL": 10887,
"##bXERbX": 10888,
"ENyDN": 10889,
"iZmKIj": 10891,
"##ZGkDqn": 10892,
"DYSEvY": 10893,
"cg": 198684,
"##xq": 136319,
"DeDDJ": 10896,
"aENASZ": 10897,
"##Gnpyk": 10898,
"##JHN": 10899,
"xJ": 105743,
"aNPkkQ": 10901,
"Er": 192786,
"RoU": 10903,
"SXf": 10904,
"BAoRCa": 10905,
"Yax": 10906,
"##oztdej": 10907,
"SRUSSx": 10909,
"##oSkND": 10910,
"##WC": 197417,
"##hmjqL": 10912,
"##siPnIl": 10913,
"tprzh": 10915,
"cvT": 148397,
"##oX": 184476,
"##wjcGx": 10918,
"qPvfSc": 10919,
"##iHJxGI": 10920,
"EUm": 10921,
"##EyE": 10922,
"vbGWD": 10923,
"LQwA": 10924,
"##UARGWe": 10925,
"##nlGixS": 10926,
"woOnS": 10927,
"##nTr": 10928,
"##eoozy": 10929,
"##kHlsN": 10930,
"##TdtW": 10931,
"##KK": 172571,
"yUF": 10933,
"##IiZA": 10934,
"##ZbR": 10935,
"fkrBX": 10936,
"Kw": 196206,
"NV": 184629,
"##Ta": 197500,
"RFfrz": 10940,
"##gKDK": 10941,
"RmaKQ": 10942,
"##VxPYC": 10943,
"IFubFn": 10944,
"gzbYEX": 10945,
"ropYq": 10946,
"RxurK": 10947,
"##AxQ": 64875,
"TjHjL": 10949,
"dkMgo": 10950,
"wFv": 10951,
"ePXlJ": 10952,
"dXAQa": 10953,
"kbhO": 10954,
"##jd": 192979,
"SNTP": 10956,
"TzRY": 10957,
"##dXjNu": 10958,
"##zrSC": 10959,
"Ho": 104502,
"##bEl": 10961,
"##oyXXRV": 10962,
"oCHbkL": 10963,
"##JZ": 198627,
"##VsjO": 10965,
"##WbaY": 10966,
"PpbmjO": 10967,
"##giIUE": 10968,
"##uR": 196426,
"##urs": 10970,
"ajKn": 10971,
"##ZkVw": 10972,
"cTwZaX": 10973,
"##ZwoFek": 10974,
"##wvMMz": 10975,
"##nCVMK": 10977,
"##VOV": 10978,
"VCAfX": 10979,
"lH": 199187,
"EEeav": 10981,
"##uUTzHk": 10982,
"##cW": 157857,
"##RSIIP": 10984,
"##DIel": 10985,
"lksO": 10986,
"##hAp": 10987,
"gtI": 10988,
"tH": 140085,
"RxGl": 10991,
"##cC": 76515,
"MJ": 197722,
"##pq": 193849,
"VyIeK": 10996,
"##SDT": 10997,
"##QEz": 10999,
"NdHn": 11000,
"mWf": 11001,
"xHp": 11002,
"HGhRm": 11003,
"oaDA": 11004,
"goak": 11005,
"VgTQwe": 11007,
"##EwTYS": 11008,
"fssU": 11009,
"##hp": 74771,
"eYyM": 11011,
"XlAwz": 11012,
"##wJtdP": 11013,
"##qdcriH": 11014,
"nESCx": 11015,
"Alar": 11016,
"##rHi": 11017,
"##PhbxXH": 11018,
"zRn": 11019,
"jD": 100059,
"##yxA": 92247,
"Ttcacp": 11023,
"mkn": 11024,
"##qRlcGy": 11025,
"##fY": 178630,
"bGYDsM": 11027,
"##cHMQy": 11028,
"smOHP": 11029,
"xIIDb": 11030,
"##Le": 152967,
"iFto": 11032,
"##qlFLHf": 11033,
"KLBSQv": 11034,
"##NtlddI": 11035,
"VCXHUh": 11036,
"##rca": 11037,
"##Qt": 189105,
"BUzVf": 11040,
"oBFPaB": 11041,
"cCyEKq": 11042,
"##OKre": 11043,
"##TCmdM": 11044,
"AtIkNo": 11045,
"jZlyhN": 11046,
"##iqck": 11047,
"WE": 142596,
"##mKrtBM": 11049,
"##sLSkzQ": 11050,
"oV": 171997,
"by": 183934,
"xP": 178377,
"DU": 186300,
"kFogGb": 11055,
"iAhO": 11057,
"##Ogkvso": 11058,
"##XxIjI": 11059,
"NJgd": 11060,
"vhE": 18677,
"sDawMg": 11062,
"##ECinaU": 11063,
"##hlwPXT": 11064,
"Lzss": 11065,
"pDyWT": 11066,
"zBu": 194677,
"##fWXu": 11068,
"##vlI": 144301,
"iyia": 11070,
"##zbN": 11071,
"##rVmqNb": 11072,
"##XEBYtg": 11073,
"##ALK": 11074,
"FpLwQc": 11075,
"##ygdMo": 11076,
"##BRCzrZ": 11077,
"TYx": 11078,
"##kLr": 11079,
"##GZ": 198502,
"##EgyxzX": 11081,
"##XRfRK": 11082,
"XKwBB": 11084,
"JxARs": 11085,
"##YNmpNo": 11086,
"sUQag": 11087,
"##iMNQQN": 11088,
"##zze": 11089,
"cgp": 11090,
"EAEZ": 11091,
"Muk": 11093,
"QgjNs": 11094,
"bvVOK": 11095,
"wq": 141996,
"##eKao": 11097,
"VuUArg": 11098,
"##noNAag": 11099,
"##TrGM": 11100,
"##pQ": 179757,
"ViZFk": 11102,
"##qTPdY": 11104,
"hQ": 159670,
"##kRmRq": 11106,
"##SbHK": 11107,
"iXEHj": 11108,
"##yCLjY": 11109,
"##BzU": 11110,
"yD": 134299,
"##ZXQxk": 11112,
"##fIAS": 11113,
"##ljrFtI": 11114,
"WbkCJW": 11115,
"##UZp": 11117,
"##hfW": 11118,
"FFlIaH": 11119,
"##ZpO": 179910,
"qUlcA": 11121,
"xvcMky": 11122,
"WsnY": 11123,
"##tOn": 11124,
"##PjuV": 11125,
"pHtJYR": 11126,
"##PnRKRh": 11127,
"ZSEdj": 11128,
"yXhBKn": 11129,
"LZVxqI": 11130,
"mfErV": 11131,
"utN": 11132,
"jWst": 11133,
"##BbNtoD": 11134,
"##yKlNk": 11135,
"##qh": 199023,
"XUn": 11137,
"BJa": 11138,
"##HzJNY": 11139,
"jHv": 11140,
"MZ": 170869,
"##LjIPEq": 11142,
"IMUtT": 11143,
"WiJ": 37731,
"##hJf": 11145,
"Ke": 176600,
"##mli": 73163,
"##TlwbZ": 11148,
"andkgl": 11149,
"##rYjGZ": 11150,
"hv": 154496,
"##cx": 133671,
"##GIT": 11153,
"TIk": 11154,
"##pMg": 11155,
"##dKan": 11156,
"HcRV": 11157,
"ZCiQ": 11159,
"##mbSo": 11160,
"##Mjw": 156161,
"##TBS": 11162,
"##sJefhX": 11163,
"##xnAj": 11164,
"##Dumpcy": 11165,
"fXVO": 11166,
"##zUiToJ": 11167,
"##PDN": 11168,
"##ZQZ": 11169,
"wrck": 11170,
"##PpJXh": 11171,
"##MUyX": 11172,
"##CnW": 11173,
"##Jkbgr": 11174,
"##DijHhO": 11175,
"NIOFy": 11176,
"##zxj": 11177,
"##JVwNWT": 11178,
"wwmTz": 11179,
"zyZXph": 11180,
"##GZdeoy": 11181,
"##zJh": 11182,
"YEBFgm": 11183,
"##FV": 130498,
"##VYin": 11186,
"HobLKf": 11187,
"##OshuB": 11188,
"OTJeZ": 11189,
"ngwQlu": 11190,
"##XkzRq": 11191,
"##qptY": 11192,
"WWO": 11193,
"tuwyYJ": 11194,
"##LOdCjH": 11195,
"uL": 198306,
"mPeQxM": 11197,
"yMCJA": 11198,
"##RCxb": 11199,
"##jmUEC": 11200,
"##VWYg": 11201,
"BFEtW": 11202,
"##KBDy": 11203,
"KoME": 11204,
"JzsVJr": 11205,
"vkn": 11206,
"##HkODsT": 11207,
"gsKvP": 11208,
"##xdH": 11209,
"xvR": 11210,
"##NOBId": 11211,
"##YXFmpV": 11212,
"##gMC": 11213,
"iDDVGG": 11214,
"##Ma": 194862,
"xMVn": 11216,
"iYaRBA": 11217,
"BIHB": 11218,
"FRE": 11219,
"##IUsNeU": 11220,
"oWHD": 11221,
"##Oeg": 11222,
"ZqraHQ": 11223,
"xFV": 11224,
"##Ei": 186287,
"##LyFpwS": 11226,
"Bnw": 11227,
"VsGk": 11228,
"##AOpSF": 11229,
"##qphNxi": 11230,
"li": 191184,
"bXyt": 11232,
"fSVHeW": 11233,
"BFgt": 11234,
"hWCZX": 11235,
"TeD": 11236,
"mG": 189084,
"##cLlt": 11238,
"##IpTYTA": 11239,
"##igxP": 11240,
"CTu": 11241,
"##zPLoc": 11242,
"##Xjrm": 11243,
"##ZSCLQQ": 11244,
"##KivSS": 11246,
"jmigAM": 11247,
"onC": 11248,
"##IhZmXK": 11249,
"##qySSt": 11250,
"##Lcao": 11251,
"##awvS": 11252,
"BUmm": 11253,
"##pCaPeX": 11254,
"YUw": 11255,
"qzTzoc": 11256,
"##lsJ": 11257,
"vUx": 11258,
"##iBogU": 11259,
"##LLO": 11260,
"##ze": 175521,
"##QzW": 11263,
"##aMwm": 11264,
"MNve": 11265,
"##JzQ": 11266,
"##hsZFM": 11267,
"##xiLoN": 11268,
"EeqzSA": 11270,
"##OJT": 11272,
"##bqh": 11273,
"idCkWV": 11274,
"Efz": 11275,
"wPAr": 11276,
"IjAhIx": 11277,
"jLBYEM": 11278,
"##zRBKS": 11280,
"oQNELJ": 11281,
"##HCh": 11282,
"##CGxR": 11283,
"##ZMXiO": 11285,
"KQH": 11286,
"##PLkaMf": 11287,
"xJdw": 11288,
"##GrF": 11289,
"zCvY": 11290,
"##xiMuZ": 11291,
"##hDX": 11293,
"##FEeBDH": 11294,
"##Fpk": 11295,
"##FwbXIQ": 11296,
"##kWmT": 11297,
"jqClcz": 11298,
"##edaMw": 11299,
"nijnN": 11300,
"##Sn": 196398,
"TasYME": 11302,
"##knsI": 11303,
"##ius": 11304,
"CXsgc": 11306,
"##BeH": 11308,
"bUzA": 11309,
"##FjtKaR": 11310,
"##mA": 178609,
"sFikI": 11313,
"uLOM": 11314,
"yP": 198695,
"##rK": 198870,
"##WyvbSi": 11317,
"##csi": 11318,
"##GHfDit": 11319,
"##Eqgba": 11320,
"##bmG": 11322,
"uFV": 11323,
"##iqM": 11324,
"QQy": 11325,
"##nbJWdr": 11326,
"vcNPW": 11328,
"ORpu": 11329,
"zMJRD": 11330,
"##RsGGZu": 11331,
"##ikntM": 11332,
"qRyiGF": 11333,
"LBM": 11334,
"mfimsx": 11335,
"YIFB": 11336,
"##UsBLTI": 11337,
"nnCA": 11338,
"##tlftKZ": 11339,
"##xO": 166394,
"BdQTj": 11342,
"sJrw": 11343,
"##wNIWyE": 11344,
"##KN": 161830,
"##hAVR": 11347,
"rt": 178935,
"##UwVn": 11349,
"LW": 143946,
"CLdE": 11351,
"##EQXqtr": 11352,
"##lvXPQ": 11353,
"hwEK": 11354,
"##efUpKa": 11355,
"XUVxDu": 11356,
"kJC": 11357,
"snqN": 11358,
"##ovL": 11359,
"vtRO": 11360,
"QvC": 11361,
"uLBuH": 11362,
"yZdcc": 11363,
"##LRjNuu": 11364,
"##HxffI": 11365,
"##JFuhi": 11366,
"ZEN": 11367,
"gbJjd": 11368,
"##WENj": 11369,
"##wQMc": 11370,
"wVgAE": 11371,
"gRDbV": 11372,
"JLatg": 11373,
"THPx": 11374,
"FZt": 11375,
"##BJv": 11376,
"##XpD": 11377,
"##BpJwZ": 11378,
"FLIfV": 11379,
"Edl": 11380,
"uU": 190218,
"lcli": 11382,
"##hyJ": 11383,
"zyYusj": 11384,
"BVZNXW": 11385,
"##ZafFbU": 11386,
"##TimJOi": 11388,
"AGLU": 11390,
"IraX": 11391,
"mTj": 11392,
"vhYo": 11394,
"##vUe": 11395,
"##yDh": 11396,
"KjTb": 11397,
"##sRjaq": 11398,
"dem": 11399,
"##rR": 185090,
"##qpbQg": 11401,
"TYG": 152782,
"##FXpfae": 11403,
"##MP": 191360,
"##pxdXRF": 11405,
"MAy": 11406,
"SFf": 11407,
"##jFaMRa": 11408,
"##Rut": 11409,
"##BnUiUS": 11410,
"pXqS": 11411,
"##Ifs": 11412,
"oixj": 11413,
"##dxEoeZ": 11414,
"lxTv": 11415,
"MeGvWA": 11416,
"LzGk": 11417,
"##tHEME": 11418,
"CfHA": 11419,
"##XN": 196555,
"UWdma": 11422,
"##gCyy": 11423,
"kZKN": 11424,
"Cj": 189690,
"mtgB": 11426,
"##XWT": 11427,
"##Magv": 11428,
"##XtEMd": 11429,
"##Ev": 194140,
"SyEUQO": 11431,
"mIjYGR": 11433,
"##Dwvym": 11434,
"##jnc": 11435,
"aWJ": 122280,
"QkIceZ": 11437,
"##Qao": 11438,
"##IvrxO": 11439,
"iKxmsj": 11440,
"##iXzW": 11441,
"##igfM": 11442,
"aAeu": 11443,
"InY": 11444,
"##BOGM": 11445,
"MzCd": 11446,
"##MjmV": 11447,
"Uxe": 11448,
"RvYWQm": 11449,
"mRwWQ": 11450,
"##YWjwJ": 11451,
"rTFTP": 11452,
"##MyyTMe": 11453,
"UlFa": 11454,
"##no": 45027,
"xQbVi": 11456,
"iQ": 182238,
"pEySCt": 11458,
"XVnHOo": 11459,
"##Avlwvz": 11460,
"##jOe": 11461,
"wJI": 11462,
"##HQs": 11463,
"##oaH": 11464,
"##PvL": 11465,
"##itl": 155479,
"MpVoNQ": 11467,
"OUh": 11468,
"OUnsOZ": 11469,
"##ww": 194712,
"qiB": 11472,
"kDK": 11473,
"WHKdI": 11474,
"CGsydd": 11475,
"##hIQVSw": 11476,
"yInmy": 11477,
"##Zd": 144889,
"##VgVSs": 11479,
"Bvg": 11480,
"##GmCaA": 11481,
"##hA": 160541,
"##RBqsB": 11483,
"##uNSIO": 11485,
"aKxJpO": 11486,
"pt": 182386,
"FHuqZL": 11488,
"PrTqX": 11489,
"AWX": 11490,
"##SQCJ": 11491,
"jwCYEE": 11492,
"##bduwb": 11493,
"Uvl": 11494,
"##lTPki": 11495,
"QgFpWN": 11496,
"Zy": 191938,
"##rDCTFz": 11498,
"gt": 170141,
"##PVvOU": 11500,
"##HXVP": 11501,
"##URiIhn": 11502,
"zvoy": 11503,
"##Jte": 11504,
"HKK": 11505,
"TSRjen": 11506,
"CifY": 11507,
"##vLRFj": 11508,
"ZdjMH": 11509,
"rxMFTq": 11510,
"##MIlzaB": 11511,
"XSYhFA": 11513,
"dWf": 11514,
"wrQsN": 11515,
"##xRdngu": 11516,
"UCgr": 11517,
"mwQlf": 11518,
"##OcSw": 11519,
"##KEB": 11521,
"AidV": 11522,
"UaL": 11523,
"##nc": 187366,
"PTdqu": 11526,
"##oPBTqo": 11527,
"pz": 158313,
"##cvU": 11529,
"##jwULw": 11530,
"ELy": 11531,
"##oLrdZO": 11532,
"ENx": 11533,
"UgTtV": 11534,
"Hsr": 181990,
"##tLbBa": 11536,
"Vw": 176834,
"##ZNqhBA": 11538,
"bTIFe": 11539,
"##Qb": 193032,
"##aNgah": 11541,
"oTMq": 11542,
"##gzF": 11543,
"##Vc": 196207,
"vFz": 11545,
"##yF": 162309,
"##snh": 40213,
"##sxfn": 11548,
"PRDm": 11549,
"vFNC": 11550,
"##cCrEa": 11551,
"MMRflc": 11552,
"##FOx": 11553,
"##QW": 196815,
"nAtBn": 11555,
"cjMz": 11556,
"##DNAhM": 11557,
"##Hh": 117265,
"##MXoG": 11559,
"##mCI": 11560,
"##LAAOaE": 11561,
"sLtJ": 11562,
"##cObVIh": 11563,
"##rhRVCr": 11564,
"qN": 146708,
"mUAZF": 11566,
"##VbDcRD": 11567,
"dyWX": 11568,
"##Qfy": 11569,
"##IjAen": 11570,
"##RqG": 11571,
"##kLTo": 11572,
"##fCFnYu": 11573,
"##qph": 129688,
"BqKI": 11575,
"RHsOi": 11576,
"gKxw": 11577,
"##ury": 161540,
"wvK": 11579,
"OFE": 11580,
"##hQ": 152082,
"gZOh": 11582,
"Rhq": 11583,
"##DHbTi": 11584,
"##cSawQ": 11585,
"xQBnB": 11586,
"##PDPZ": 11587,
"##lnegxR": 11588,
"##sL": 189798,
"##tGay": 11590,
"RZV": 11591,
"OjD": 11592,
"##nyf": 11593,
"##fUYJ": 11594,
"nGH": 11595,
"vQFI": 11596,
"iyBEur": 11597,
"ySNo": 11598,
"QPcV": 11599,
"##rn": 135971,
"NAgHm": 11601,
"##UJez": 11602,
"##tm": 195756,
"Sna": 11604,
"##PsSm": 11605,
"DI": 181613,
"qjHhBl": 11607,
"##GBKu": 11608,
"##zIaH": 11609,
"##mfqLC": 11610,
"##GFPEz": 11611,
"##bv": 156221,
"##YXVig": 11613,
"dUDzH": 11616,
"##tkMg": 11617,
"##DqW": 11618,
"##VqKf": 11619,
"##dXWuet": 11620,
"##Eyt": 11621,
"ZjW": 11622,
"cBNMI": 11623,
"##Kzy": 11624,
"##OBfjfS": 11625,
"##HoJ": 11627,
"##VGKY": 11628,
"##yxXA": 11629,
"##bY": 145555,
"##KJoGE": 11631,
"##eddN": 11633,
"Zhx": 11634,
"##bQN": 11635,
"##LiDxDD": 11636,
"xYFjvD": 11637,
"CdU": 11638,
"xgvMKt": 11639,
"##faLTOj": 11640,
"ZXRD": 11641,
"NdFhyA": 11642,
"##wOC": 11643,
"##LDtf": 11644,
"zadxz": 11645,
"##HHOipI": 11646,
"yoNBh": 11647,
"##pQg": 11648,
"##MYCE": 11649,
"JHxyt": 11650,
"gaOWwA": 11651,
"##NV": 152881,
"zmH": 11653,
"##UHBcgp": 11654,
"VEpOvn": 11655,
"SERk": 11656,
"##hNi": 11657,
"##dOpa": 11659,
"dbeIs": 11660,
"oTj": 11661,
"EV": 176895,
"zXwGBT": 11663,
"##hl": 133702,
"xpl": 11665,
"##PSx": 11666,
"VpvOL": 11667,
"vMre": 11668,
"##lyBMs": 11669,
"ADHbsE": 11670,
"##IEvko": 11671,
"##NZb": 11672,
"##oke": 52277,
"##oL": 193722,
"##zMudsd": 11675,
"ii": 95769,
"FGXjLR": 11677,
"pFhkD": 11678,
"##DNKiP": 11679,
"AQjB": 11680,
"##tSB": 11681,
"##SI": 199686,
"##LrVm": 11683,
"##rl": 192410,
"##uDDNAX": 11685,
"##ST": 182188,
"##Aa": 80932,
"##eWmb": 11688,
"##PDCtDT": 11689,
"AZCW": 11690,
"GbAfKe": 11692,
"##RWf": 11693,
"ciGXS": 11694,
"##qYUXV": 11695,
"##olXzVM": 11696,
"VJ": 166240,
"##VyNEt": 11698,
"##wbt": 186241,
"##rdK": 11700,
"##SXjl": 11701,
"##HViwy": 11702,
"##bxfG": 11703,
"##YJyB": 11704,
"##MSlo": 11705,
"ptJKJ": 11706,
"##GVtbK": 11707,
"PmEh": 11708,
"##ouGHwd": 11709,
"##qoRt": 11710,
"##TGKPSS": 11711,
"bz": 182649,
"##NcOvnc": 11713,
"GYYik": 11714,
"cWtcII": 11715,
"##pcIC": 11716,
"Gz": 159959,
"lpgw": 11718,
"##qmCTx": 11719,
"gWmq": 11720,
"##lSEXKj": 11721,
"##WEx": 11722,
"zCyCkv": 11723,
"uMkqh": 11724,
"snUE": 11725,
"##TceYkJ": 11726,
"NH": 197175,
"##KOJa": 11729,
"##YX": 186127,
"dWUF": 11731,
"##kgbLbC": 11732,
"sjQ": 11733,
"##VysZO": 11734,
"##NCi": 11735,
"JmJRYy": 11736,
"##Wifvsu": 11737,
"##eg": 149295,
"pyIP": 11739,
"ctJo": 11740,
"Ofx": 11741,
"##oIviO": 11742,
"##eAgo": 11743,
"KKnh": 11744,
"##Nq": 165585,
"##QDnmcK": 11746,
"qCn": 11747,
"vFNO": 11748,
"##TH": 121183,
"##jlN": 11750,
"##ulEqTa": 11751,
"rLE": 11752,
"vakFC": 11753,
"##DNZND": 11754,
"##vMICx": 11755,
"zgTfm": 11756,
"##DDr": 11757,
"ZZadH": 11758,
"##IG": 190647,
"##SGJJgi": 11760,
"##nLAUT": 11762,
"aLe": 11763,
"uMoQ": 11764,
"##bFhc": 11765,
"##hvU": 11766,
"##gYJr": 11767,
"yGYA": 11768,
"##GO": 181693,
"##jzQ": 11770,
"##oBysv": 11771,
"YzB": 11772,
"##GeyX": 11773,
"##iqvn": 11774,
"##VbKT": 11775,
"UDF": 11776,
"WperL": 11777,
"ibK": 11778,
"##suVr": 11779,
"##gMIp": 11780,
"qAV": 11781,
"##EI": 195035,
"##flEKtw": 11783,
"snl": 137086,
"##WQFsf": 11785,
"Syu": 11786,
"VlJb": 11787,
"##XwL": 11788,
"##ew": 197619,
"##YMOzl": 11790,
"##NSGa": 11791,
"##My": 186380,
"##ut": 184401,
"##AEfsP": 11794,
"##kyvl": 11795,
"lN": 192812,
"sbslX": 11797,
"##Jd": 199798,
"cdQr": 11799,
"PVtD": 11800,
"SpyW": 11801,
"HgO": 11802,
"Cy": 168481,
"##jXTt": 11804,
"PNZobQ": 11805,
"wRfQx": 11806,
"##mvqPiG": 11807,
"##JdqP": 11808,
"JsiU": 11809,
"##doZy": 11810,
"##XCw": 11812,
"vrpXg": 11813,
"##vCju": 11814,
"kHlpi": 11815,
"##ihob": 11816,
"NMCD": 11817,
"##eoZg": 11818,
"UMlbKM": 11819,
"##Ut": 155017,
"##lOAXO": 11821,
"##sM": 160254,
"##WOcv": 11823,
"##WOJIdS": 11824,
"kAZr": 11825,
"JbEm": 11826,
"##IzS": 11827,
"##rx": 179940,
"##CPE": 11830,
"##aAp": 11831,
"ldsdGo": 11832,
"##kbTz": 11833,
"##zBQ": 11834,
"##zg": 174484,
"##Dgq": 11836,
"##kq": 186577,
"lpK": 11838,
"##Gan": 128498,
"znT": 12510,
"Tpb": 47939,
"cRHuk": 11842,
"nkpNW": 11843,
"lqQKmn": 11844,
"peb": 61418,
"Blx": 11846,
"##JPV": 11847,
"##mrB": 11849,
"oUK": 98950,
"##gcO": 11851,
"##aq": 199034,
"ffqY": 11853,
"##UOV": 11854,
"##eVi": 11855,
"##rxpB": 11856,
"DfUp": 11858,
"##YsAu": 11859,
"ajhmY": 11860,
"twbvsT": 11861,
"##UOp": 11862,
"cX": 189218,
"##ZCStOy": 11864,
"mhpJ": 11865,
"eZHcK": 11867,
"bGYC": 11868,
"ty": 190190,
"luTWcg": 11870,
"Tbr": 11871,
"##KDDgak": 11872,
"##CIm": 11873,
"rfBCcY": 11874,
"##lWepy": 11875,
"##qwMl": 11876,
"Kq": 149625,
"lGwYUc": 11878,
"##zzKAq": 11880,
"Fy": 86776,
"ooGxT": 11882,
"##jMubuu": 11883,
"fwllSk": 11884,
"pzF": 11885,
"szbTw": 11886,
"HqfNh": 11887,
"oCeQgF": 11888,
"##dYQPG": 11889,
"##XgDRX": 11891,
"mrei": 11892,
"eIs": 11893,
"##vGaDvT": 11894,
"##wFkLxl": 11895,
"WtaD": 11896,
"##cYHdAM": 11897,
"hMPmc": 11898,
"##BNI": 11899,
"##FdBK": 11900,
"##nQf": 11901,
"DeqMt": 11902,
"##fffmzD": 11903,
"##oO": 174616,
"##NbLer": 11905,
"##kfF": 139507,
"##KMan": 11908,
"IGi": 89411,
"##dJrvAK": 11910,
"MSn": 129708,
"##MIfVN": 11912,
"eeSZj": 11913,
"##zVT": 11914,
"##JoC": 11915,
"##dKrf": 11916,
"##cUr": 11917,
"##Easg": 11918,
"OmM": 11920,
"##zgkyM": 11921,
"wGXpj": 11922,
"##QwRpaA": 11923,
"pKpO": 11924,
"ImHxnh": 11925,
"StQmzY": 11926,
"TKhQ": 97849,
"bgcF": 11928,
"##oyP": 11929,
"##dhvFH": 11930,
"##BGkxP": 11931,
"cfL": 11932,
"nwm": 11934,
"##ta": 175287,
"nVa": 11936,
"Tp": 154501,
"LRu": 11938,
"KQvM": 11939,
"qQdiUO": 11940,
"ZxTK": 11942,
"##MYQbqm": 11943,
"##vVm": 11946,
"kVm": 11947,
"##ZVzBX": 11948,
"RtjBUu": 11949,
"XNVz": 11950,
"vnvhNG": 11951,
"IjRV": 11952,
"PpYYps": 11953,
"bq": 183906,
"hH": 173726,
"##dyT": 11957,
"qCrNcT": 11958,
"bnY": 11959,
"YuM": 11961,
"##vkwMb": 11962,
"##LEm": 157208,
"##kWGlRg": 11964,
"ZSvO": 11965,
"##ELtON": 11966,
"##aHQ": 11967,
"JHTfMR": 11968,
"##IjAplv": 11969,
"XfZG": 11970,
"NeUOF": 11971,
"faT": 11972,
"##IBZHj": 11973,
"##IfA": 11975,
"UwVP": 11976,
"hsSW": 11977,
"##WtX": 11978,
"xB": 190821,
"Qvm": 11981,
"##xynVu": 11982,
"##MosLph": 11983,
"vqlj": 11984,
"TKD": 11985,
"Efgbn": 11986,
"OSXV": 11987,
"WPA": 11988,
"##RCh": 11989,
"##XQZPA": 11990,
"AIJovJ": 11991,
"##zvcS": 11992,
"mOeh": 11993,
"qcbuE": 11994,
"bgPV": 11995,
"UyW": 11996,
"GpHk": 11997,
"##kpMlaE": 11998,
"xmU": 177218,
"##fjl": 12000,
"CZpWx": 12001,
"Axd": 12002,
"##EDRn": 12003,
"##AmTx": 12004,
"##qPlh": 12005,
"ryH": 12006,
"ajUOE": 12007,
"##LhA": 12008,
"RccmlL": 12009,
"##zhF": 12010,
"SZgw": 12011,
"##zDjhm": 12012,
"RaTDPS": 12013,
"aAnEI": 12014,
"##OIV": 12015,
"##fMa": 12016,
"##hFJh": 12017,
"##RZSmHE": 12018,
"lSP": 12019,
"xmvUft": 12020,
"##DpdTAx": 12021,
"##iyYBQe": 12022,
"##KZVIFj": 12023,
"jZbLP": 12024,
"##mMQxk": 12025,
"##Ds": 183719,
"##amarB": 12027,
"##ZrtYa": 12028,
"##MIMaW": 12029,
"##cFJOu": 12030,
"yROg": 12031,
"OsUGre": 12032,
"trL": 12033,
"##mf": 182469,
"kln": 12035,
"##GlthDr": 12036,
"##XQp": 12037,
"fNfCU": 12038,
"YMpjZy": 12039,
"##Sw": 161963,
"##cTd": 12041,
"rrtgT": 12042,
"XssMI": 12043,
"VdhJWr": 12044,
"qAI": 12046,
"mDmjyS": 12047,
"tJXcdn": 12048,
"qrZ": 12049,
"##awdwvD": 12050,
"##jpfJv": 12051,
"##pjztM": 12052,
"XfVG": 12053,
"ErB": 12054,
"XD": 190361,
"##nXMKbS": 12056,
"##ahUL": 12058,
"jk": 142340,
"##zeFRHP": 12060,
"##tw": 193026,
"OWfNkj": 12062,
"SJqL": 12063,
"##kLN": 12064,
"vGwn": 12065,
"rSnoe": 12066,
"BnZ": 12067,
"##YkYXr": 12068,
"##wILu": 12069,
"UqiWQ": 12070,
"##XvQHZM": 12071,
"LfEuh": 12072,
"##uEtDw": 12073,
"GAC": 12074,
"##pTn": 12075,
"##ixc": 12076,
"guXp": 12077,
"##gDDPe": 12078,
"##zmgHcT": 12079,
"##eSbOAY": 12080,
"##vMcyz": 12081,
"##qjchWT": 12082,
"xgBSew": 12084,
"HoW": 12085,
"Kcw": 12086,
"mbuPI": 12089,
"Cgp": 12091,
"OXAj": 12092,
"AHO": 12093,
"YCPN": 12095,
"WIiG": 12096,
"##URQUh": 12097,
"##YsX": 12099,
"FARb": 12100,
"MFSxyh": 12101,
"##xfmr": 12102,
"##ohZ": 12103,
"##duU": 12104,
"##PZD": 12105,
"gL": 190400,
"##YtRT": 12107,
"dvgUyT": 12108,
"BjEJd": 12109,
"zxnrRj": 12110,
"##tSPEL": 12111,
"##ux": 127965,
"##RApjAd": 12113,
"qAc": 12114,
"##OuveL": 12115,
"##SrGPt": 12116,
"koKt": 12117,
"QW": 128574,
"##Zqgr": 12119,
"##Jhf": 12120,
"cJ": 197342,
"LlHGRI": 12122,
"CKc": 12123,
"##ActaX": 12124,
"##qFr": 96537,
"kQJdKB": 12126,
"AqggmQ": 12127,
"##LvR": 12128,
"ojId": 12129,
"Udb": 12130,
"NBr": 43320,
"##vCY": 12132,
"LuD": 12133,
"Rlw": 12134,
"##ZBHS": 12135,
"WxKy": 12136,
"##tfiODE": 12138,
"##pFk": 12139,
"##HmEjyk": 12140,
"##bKgT": 12141,
"FzKJi": 12142,
"KS": 180140,
"SE": 190048,
"##YyRr": 12145,
"KIHxq": 12146,
"##qQKx": 12147,
"##hMOt": 12148,
"##Allg": 12149,
"##zb": 195422,
"##MwbA": 12151,
"##iyMEio": 12152,
"##ppcqZ": 12153,
"##KIP": 12154,
"FeRqzc": 12155,
"##ZG": 151978,
"##HCG": 12157,
"##qziKT": 12158,
"##FFaNAj": 12159,
"fpYX": 12160,
"ml": 196162,
"ZRQVMT": 12162,
"fEIx": 12163,
"##bWCKo": 12164,
"##zLMf": 12165,
"uQw": 12167,
"fWIDn": 12168,
"##Vakh": 12169,
"##cmp": 12170,
"##yvg": 12171,
"ZCY": 12172,
"##msWdv": 12173,
"vsEE": 12174,
"##mpP": 12175,
"rUHq": 12176,
"fz": 196397,
"WGYf": 12178,
"##ggttWC": 12179,
"Agcd": 12180,
"ffxyC": 12181,
"##YKJ": 12182,
"wyn": 12185,
"fRcl": 12186,
"##kKXXyC": 12187,
"##RGLHO": 12188,
"##Wydo": 12189,
"BeGOBa": 12190,
"KrL": 30306,
"qU": 180497,
"vhLtQn": 12193,
"vbNGFM": 12194,
"##pB": 194951,
"lfnU": 12196,
"##br": 195521,
"##CTbX": 12198,
"RlVhec": 12199,
"YG": 185154,
"gz": 189981,
"XdrGbH": 12202,
"##qyB": 12203,
"EMqMy": 12204,
"##qe": 187748,
"##lMrpR": 12206,
"jQrV": 12207,
"aWJK": 12208,
"bUp": 12209,
"##BrkQ": 12210,
"##koMBT": 12212,
"##HANZk": 12213,
"HmJlqT": 12214,
"vVkOZ": 12215,
"##AbPPn": 12216,
"BRSgtk": 12217,
"##RPGRV": 12218,
"mLN": 12219,
"##En": 174621,
"skyzNG": 12221,
"cWP": 12222,
"##taTf": 12223,
"##vtXll": 12224,
"Ypj": 12225,
"ZuGY": 12226,
"kvxc": 12227,
"So": 199533,
"yokZ": 12229,
"##EyShj": 12230,
"##rBHXi": 12231,
"##Ea": 184978,
"##LdX": 12233,
"msa": 12234,
"##BJduyY": 12235,
"pYXa": 12236,
"QgiXvA": 12237,
"eGMH": 12238,
"PDc": 12239,
"GbYI": 12240,
"##BrGkvI": 12241,
"YyUb": 12243,
"##sE": 161222,
"##SvN": 12245,
"##zfHcg": 12246,
"##rSa": 12247,
"##xm": 187507,
"##dusKV": 12249,
"##Buc": 12250,
"PoBmGT": 12251,
"zLNWpT": 12252,
"FSZQq": 12253,
"GOAJ": 12254,
"##CyZs": 12255,
"##QSyV": 12256,
"Hbd": 12257,
"##QmDBb": 12258,
"UPTOY": 12259,
"##rof": 12260,
"hkYmz": 12261,
"IE": 171063,
"##kPFWjV": 12264,
"qkrr": 12265,
"##BupxAP": 12266,
"TRajZO": 12267,
"##GiwjoK": 12268,
"##PFLOpx": 12269,
"ZOSTf": 12270,
"rW": 180824,
"teTk": 12272,
"oxsgq": 12273,
"HAasaI": 12274,
"##hea": 81004,
"QvzRP": 12276,
"##ITTMe": 12277,
"##nP": 198975,
"##ZNlyNg": 12279,
"##ELMpTG": 12280,
"##ZBL": 12281,
"##VoglVq": 12282,
"pOjI": 12283,
"rd": 192105,
"XukB": 12285,
"##PR": 193126,
"mUzMpX": 12287,
"hWzwaw": 12288,
"jwwNdc": 12289,
"##IGb": 12290,
"Su": 156162,
"##FxYReF": 12292,
"aMbR": 12293,
"##uHYk": 12294,
"##mdO": 12295,
"##KTiG": 12296,
"Ko": 178494,
"CO": 196926,
"ypo": 12300,
"xXQE": 12301,
"JRQQ": 12302,
"##tFc": 108199,
"##GbmQ": 12304,
"Jad": 12305,
"##Dw": 174240,
"NUUdOL": 12307,
"lar": 12308,
"SSsHkP": 12309,
"##qmaAhB": 12310,
"nfp": 12311,
"##NynL": 12313,
"vqvLT": 12314,
"##aD": 178364,
"tVGEZ": 12316,
"##dd": 183104,
"AKNZ": 12318,
"##kav": 12319,
"XSTE": 12320,
"##biXW": 12321,
"##oUMSTg": 12322,
"aaA": 12323,
"##iEq": 12324,
"onpl": 12325,
"##CBl": 12326,
"##EBWp": 12327,
"ih": 185047,
"##bB": 196131,
"##ePMT": 12330,
"##WQFz": 12331,
"##DdJx": 12332,
"##DXD": 12333,
"##aceh": 12334,
"##KM": 165061,
"##TCGcd": 12336,
"##Cbpum": 12337,
"##GZHObL": 12338,
"##PiQi": 12339,
"##iACB": 12340,
"##Zw": 195092,
"VXGbDF": 12342,
"pDMj": 12343,
"##lRlqO": 12344,
"##xbUGIz": 12345,
"##le": 172384,
"hKOp": 12347,
"##dZes": 12348,
"##jTC": 82988,
"OqUOs": 12350,
"ZvP": 12351,
"dgKN": 12352,
"##ZLfbV": 12353,
"##Air": 12354,
"##vSasV": 12355,
"Xgo": 12356,
"dJXcZ": 12357,
"WvM": 12358,
"##CSI": 12359,
"##zCHAIU": 12360,
"##ghU": 12361,
"LF": 172859,
"##QFfS": 12363,
"##RVEXQU": 12364,
"##NKmLAa": 12365,
"##oMtbJ": 12366,
"##znEk": 12367,
"dBMtc": 12369,
"##dw": 19719,
"##vcIFh": 12371,
"xLDD": 12372,
"jmA": 12373,
"dfCSSw": 12374,
"##TZttD": 12375,
"##HDDQwi": 12376,
"hlm": 12377,
"##WkoDl": 12379,
"##fwl": 12380,
"##rUXBfh": 12381,
"##Krpy": 12382,
"##kU": 196295,
"XdpFGU": 12384,
"##hhS": 12385,
"Zr": 156678,
"##ONe": 12387,
"##Kmiqq": 12388,
"UrTh": 12389,
"##YDDEzG": 12390,
"llshmR": 12391,
"qOD": 17291,
"ZF": 166162,
"##wIjfz": 12394,
"##eSlFc": 12395,
"##ChbVdN": 12396,
"xEM": 12397,
"##KZz": 12398,
"KmNB": 12400,
"##iVNtoM": 12401,
"kKFb": 12402,
"##jlskS": 12403,
"##oZDGi": 12404,
"##DiOnY": 12406,
"##wjhp": 12409,
"##xPFBBR": 12410,
"Nj": 198235,
"##xquuwp": 12412,
"gP": 183151,
"##IJI": 12414,
"##fI": 163891,
"##wlLw": 12416,
"##IdOCKO": 12418,
"##vbDJjd": 12419,
"mKu": 12420,
"rAySNS": 12421,
"ShyE": 12422,
"jXB": 171086,
"Rbie": 12424,
"pQ": 159967,
"VdA": 12427,
"##Fcckf": 12428,
"qkUr": 12429,
"IVT": 12430,
"QoCqQK": 12432,
"##pCgtWq": 12433,
"QihQ": 12434,
"##DgUIp": 12435,
"PB": 162837,
"WaZC": 12437,
"fiP": 12438,
"DZmGJN": 12439,
"##RYjm": 12440,
"COYLd": 12441,
"aSI": 12442,
"XoPZX": 12443,
"##jH": 174570,
"##hwDCbm": 12445,
"##itWJ": 12446,
"Ambkvx": 12447,
"tFvj": 12448,
"##SuYO": 12449,
"Hgo": 12450,
"UNA": 12451,
"psU": 35860,
"##HXg": 12453,
"oT": 151038,
"##WfNY": 12455,
"Ps": 199402,
"ewURK": 12458,
"##wE": 162225,
"##pgMO": 12460,
"##oOXp": 12461,
"##YOtTkm": 12462,
"##PCytVc": 12463,
"##jaYX": 12464,
"zipyzr": 12465,
"PwunAh": 12466,
"cn": 179139,
"EbyP": 12468,
"ewC": 12469,
"VO": 157991,
"zxT": 12471,
"UGIb": 12472,
"uIyj": 12473,
"lL": 168963,
"##VEsuR": 12475,
"UXBT": 12476,
"kSCI": 12477,
"WcoMxe": 12478,
"##Nzvb": 12479,
"##az": 74433,
"VKw": 12481,
"XJCp": 12482,
"##CFe": 12484,
"Peo": 12485,
"##ASwS": 12486,
"##Ze": 163112,
"ytPE": 12488,
"##yv": 79351,
"OnF": 12490,
"##nqK": 12491,
"fUmIu": 12492,
"##XWo": 12493,
"IYalMX": 12494,
"ZDhx": 12495,
"##Vucd": 12496,
"gGdQ": 12497,
"##fMFM": 12498,
"##jGnb": 12499,
"hgyCYT": 12501,
"##jNaz": 12503,
"##gsbg": 12504,
"##OakskA": 12505,
"##GiXq": 12506,
"##ztQbxd": 12507,
"##fb": 162717,
"##BtmK": 12509,
"Dcqhek": 12511,
"##lkOw": 12512,
"WXcJJ": 12513,
"nQRZ": 12514,
"##XJqbf": 12515,
"##py": 163835,
"##lHpbq": 12517,
"##Cia": 12518,
"##FWpFJo": 12519,
"mnu": 12520,
"JhmFM": 12521,
"xb": 198536,
"##AE": 183604,
"RyD": 12524,
"##ZzSGe": 12525,
"Bdwlo": 12526,
"Qimat": 12527,
"##iYcqA": 12528,
"##zXq": 12529,
"ilA": 12530,
"mw": 153667,
"Fdb": 12532,
"DeKNVE": 12533,
"##ODo": 12534,
"DRP": 12535,
"XUhe": 12536,
"isQM": 12537,
"ZpGCBX": 12538,
"GuCIN": 12539,
"##DXnJ": 12540,
"nWIc": 12541,
"##sAgWdt": 12542,
"##qXtw": 12543,
"##cjqyG": 12545,
"##zRLLj": 12546,
"LqjkX": 12547,
"##dVdVe": 12548,
"##TGWDdA": 12549,
"VRL": 12550,
"ZgBaqi": 12551,
"##rAKm": 12552,
"uVo": 12553,
"##YaUT": 12554,
"##KT": 47310,
"DUOu": 12556,
"##sDoO": 12557,
"Sk": 188270,
"ksRyf": 12561,
"##CxtiOd": 12562,
"HTcGzf": 12563,
"gu": 151115,
"##DDwQvV": 12565,
"##AF": 144997,
"##HIk": 12567,
"KfhS": 12568,
"##COalqm": 12570,
"gBWhrz": 12572,
"##WYQFbo": 12573,
"##LYP": 12574,
"TnH": 167860,
"KzpAD": 12576,
"QzFImm": 12577,
"ZSERl": 12579,
"rR": 166583,
"ZAvRZ": 12581,
"yjfvR": 12582,
"yODF": 12583,
"mm": 184570,
"##GvG": 12585,
"##qsQH": 12586,
"QdOJt": 12587,
"##NKO": 12588,
"##qWQ": 12589,
"CwDh": 12590,
"##Bfl": 12591,
"plu": 12592,
"##mcPaIq": 12593,
"##tCRbKM": 12594,
"UG": 191469,
"MYCyG": 12596,
"##pL": 156768,
"qLlFVX": 12598,
"##ukn": 12600,
"zY": 181243,
"SPn": 12602,
"##Ziebzv": 12603,
"##UGSib": 12604,
"##PL": 149190,
"##OalvZ": 12606,
"kbW": 16800,
"##RZMv": 12608,
"##ZjFY": 12609,
"FoL": 12610,
"Pusg": 12611,
"##czJJlI": 12612,
"##pDT": 12613,
"##dzrQZx": 12614,
"VDDr": 12615,
"IueaC": 12616,
"UmHsxy": 12618,
"IuYLFf": 12619,
"qsYqpr": 12620,
"##zhgEvu": 12621,
"gbFCM": 12622,
"bouc": 12623,
"DA": 174004,
"QcgptS": 12626,
"Spq": 12627,
"JyXSNK": 12628,
"##NcmfTq": 12629,
"##hcw": 12630,
"##bNqQV": 12633,
"##nstNdw": 12634,
"##dnXv": 12635,
"XdvIo": 12636,
"aGZ": 12637,
"##luzX": 12638,
"##bBdmYv": 12639,
"##WDa": 12640,
"##ygwmA": 12642,
"##potKtc": 12643,
"aP": 93419,
"UhaFbt": 12645,
"wVqV": 12646,
"##xdojYH": 12647,
"##pFdCyw": 12648,
"##eJAdrN": 12649,
"qcG": 12651,
"##Qp": 192287,
"##MPuzhy": 12654,
"##UxAC": 12655,
"##eqTt": 12656,
"HGsS": 12657,
"##WPI": 12658,
"##FR": 160818,
"##WSqK": 12660,
"ndF": 12661,
"##jIa": 12662,
"##YllF": 12663,
"YCg": 12664,
"##wkKa": 12665,
"OB": 196093,
"##xgqCCp": 12667,
"##Dd": 186237,
"##qDR": 12669,
"aGiIAp": 12671,
"jzTSjw": 12672,
"##RrQ": 12673,
"CBXvc": 12674,
"##VdRY": 12675,
"YHZek": 12676,
"##CPmM": 12677,
"KqAPYt": 12678,
"ZHtre": 12679,
"fxh": 12680,
"ceUc": 12681,
"##RIbcG": 12683,
"##Eeteh": 12684,
"##tLKrAS": 12685,
"FNBg": 12686,
"XUew": 12687,
"##wr": 190613,
"##QAj": 12689,
"LDhEAC": 12690,
"iTS": 12691,
"DxKeCx": 12692,
"##FMmKDT": 12693,
"FGgsqW": 12694,
"Aw": 190271,
"##mGVYSg": 12696,
"##mEOFK": 12697,
"WXpi": 12698,
"viyWc": 12699,
"##CCT": 12701,
"WFr": 12702,
"##AmV": 12703,
"##dhQDC": 12704,
"lCKiXg": 12705,
"dU": 186968,
"##uQq": 12707,
"##Uk": 174303,
"##KjXsgm": 12709,
"EMphAN": 12711,
"VgH": 12712,
"lcvp": 12714,
"plSHu": 12715,
"VSsEm": 12716,
"TYTRv": 12717,
"##mKRbk": 12718,
"aGfUs": 12719,
"##HPoM": 12720,
"##JuOuMv": 12721,
"##NsLnig": 12722,
"##uKpdhI": 12723,
"##YuYXi": 12724,
"jMF": 12725,
"YY": 176024,
"kk": 186595,
"HJ": 155356,
"rAOJN": 12729,
"cXs": 12730,
"##knKC": 12731,
"##ZzxV": 12733,
"##lx": 121430,
"##OSTZ": 12736,
"##Jfrs": 12737,
"##yT": 175662,
"ZLF": 12739,
"##nlFswg": 12740,
"##slis": 12741,
"##wGmr": 12742,
"uPt": 12744,
"TPkYKJ": 12745,
"##BgA": 12746,
"##qb": 165326,
"##DuU": 12748,
"Kb": 167592,
"TMm": 12750,
"lfrt": 12751,
"##HVxjXI": 12752,
"##RvgUN": 12753,
"##vDNZBz": 12754,
"HIwZ": 12755,
"##Zhhnn": 12756,
"jNCIT": 12757,
"FcZQ": 12758,
"Ef": 152136,
"NZZKtF": 12760,
"dtb": 12761,
"zPwdTo": 12762,
"##UyLKc": 12763,
"##LPtR": 12764,
"qUB": 12765,
"##gFzFig": 12766,
"skDkJq": 12767,
"##zIX": 12768,
"##egjQ": 12769,
"##xkPqe": 12770,
"flK": 12772,
"##IlPJZN": 12773,
"bM": 194798,
"QaAas": 12775,
"hyBA": 12776,
"##aess": 12777,
"##fgqRC": 12778,
"##IbAj": 12779,
"##oWV": 12780,
"BEabT": 12781,
"##ZjRp": 12782,
"sogiRb": 12783,
"XSb": 12784,
"tiK": 12785,
"uN": 178153,
"##ZtcLo": 12787,
"mogBH": 12788,
"jx": 145793,
"##Ll": 190082,
"##lGDqu": 12791,
"Eb": 198671,
"##lopV": 12793,
"##zgJl": 12794,
"##Tabvj": 12795,
"##ALe": 12796,
"oRtGjX": 12797,
"##GMG": 12798,
"##so": 154710,
"ompj": 12801,
"cIW": 12802,
"amCV": 12803,
"##nm": 199387,
"piaM": 12805,
"diy": 12806,
"SADN": 12807,
"gklXkW": 12808,
"mbsH": 12809,
"GnjcL": 12810,
"qYBD": 12811,
"##OPwD": 12812,
"##fMH": 12813,
"##ntAET": 12814,
"DqXTJ": 12815,
"##mFQI": 12816,
"##sPRa": 12817,
"SM": 180884,
"##QDWFOy": 12820,
"Jk": 169250,
"##MhCk": 12822,
"##Glxxn": 12823,
"##njLQ": 12824,
"##tBNj": 12825,
"ZUlas": 12826,
"kLECt": 12827,
"tL": 171147,
"##VHD": 12829,
"xVQk": 12831,
"##gba": 12832,
"##ydglGp": 12833,
"RZvI": 12834,
"##YqTN": 12835,
"##SlcUE": 12836,
"##YNEwE": 12837,
"UnVagn": 12838,
"##PS": 181244,
"QNSM": 12840,
"##KVY": 12841,
"##DOHq": 12842,
"##ig": 197337,
"##DBQ": 12844,
"##imEWQ": 12845,
"##WTUQ": 12846,
"tw": 193751,
"HOvOe": 12848,
"lfPkD": 12849,
"##LskI": 12850,
"##DkjYq": 12851,
"##oLy": 12852,
"##AusOlz": 12853,
"##VNpO": 12855,
"wv": 157222,
"##Ahjp": 12857,
"##MbY": 12858,
"MrXX": 12859,
"##oeaEF": 12860,
"##VM": 118633,
"##zxT": 12862,
"##ufKa": 12863,
"##TAtI": 12865,
"##rPbX": 12866,
"##CRUgnN": 12867,
"##Mvf": 57887,
"jm": 189800,
"##xbbY": 12871,
"##BJ": 177661,
"JlPa": 12873,
"bwB": 12874,
"##jFMDaT": 12875,
"##AgoUn": 12876,
"##ipxEqz": 12877,
"MistN": 12878,
"FMZ": 12879,
"yDBK": 12880,
"##SlQBg": 12881,
"rhBp": 12882,
"##RJqey": 12883,
"##QcOPbd": 12884,
"##BIxM": 12885,
"##Bv": 120447,
"##MHq": 12887,
"Ab": 170293,
"##ovnRq": 12889,
"##DXUX": 12890,
"WLB": 12891,
"wz": 176992,
"RarEQ": 12893,
"##IVK": 12894,
"fY": 182840,
"SHshb": 12897,
"##HUik": 12898,
"Jqt": 12899,
"##IJrbBp": 12900,
"##BtSVUj": 12901,
"rB": 191799,
"##jT": 181081,
"hm": 197126,
"He": 180787,
"vLPA": 12906,
"##Jh": 184506,
"##CAOd": 12909,
"##tIAYfN": 12910,
"CUONM": 12911,
"##zuROY": 12913,
"IeY": 12915,
"##Vws": 115159,
"RBD": 135504,
"NOebSA": 12918,
"mrMem": 12919,
"##fYY": 12920,
"kPo": 12921,
"##zaQI": 12922,
"##DrKX": 12923,
"##LKFbuk": 12924,
"##XNmQUl": 12925,
"Qph": 12926,
"cx": 199601,
"YM": 135393,
"##oebW": 12929,
"wOGSzj": 12930,
"##DXchnV": 12931,
"ajzhAK": 12933,
"Nqi": 50213,
"hqJqLs": 12935,
"##jyEsD": 12936,
"##ViZY": 12937,
"##NfIZB": 12938,
"fXEB": 12940,
"Xglzgc": 12941,
"sWJDY": 12942,
"mQ": 193073,
"IV": 193926,
"cB": 188114,
"##Vbb": 12946,
"##KJsqA": 12947,
"##yKG": 12948,
"ljoIB": 12949,
"##NLuTvq": 12951,
"JKycr": 12952,
"##DIb": 12953,
"##xenk": 12954,
"##MHcV": 12955,
"##gGe": 12956,
"##sG": 197558,
"Ryx": 12958,
"OrD": 12959,
"xinRcK": 12960,
"##qVOKkr": 12961,
"##vzST": 12962,
"OO": 193880,
"xezPw": 12964,
"dlSly": 12965,
"##TXaDLl": 12966,
"##gT": 139583,
"JnvZb": 12968,
"##uLLQVd": 12969,
"##AubH": 12970,
"LAran": 12971,
"##NiDOYj": 12972,
"meICM": 12973,
"##CJPnUc": 12974,
"##GUd": 12975,
"##lTXd": 12976,
"qFXK": 12977,
"##iyAx": 12978,
"LxLa": 12980,
"##RsKhIu": 12981,
"##Syda": 12983,
"##vD": 190902,
"##loL": 12985,
"##glexw": 12986,
"##Pod": 12987,
"##XQryq": 12988,
"udfm": 12989,
"sAx": 12990,
"##eUwggO": 12991,
"OY": 124034,
"ngk": 12993,
"HgJDl": 12994,
"ZrM": 12995,
"##Vjd": 12996,
"yZYZRB": 12997,
"fWPl": 12998,
"##NoKu": 12999,
"qtg": 13000,
"##KFs": 13001,
"rRZ": 13002,
"IQakU": 13003,
"##swZaWY": 13004,
"PuH": 13005,
"kU": 192731,
"##oN": 164179,
"ATj": 13009,
"bzDbC": 13010,
"##SOZ": 13011,
"zwWxO": 13013,
"ENli": 13014,
"Wcvic": 13015,
"##Caoq": 13016,
"##pGg": 13017,
"##UuyLl": 13018,
"##fvTB": 13019,
"yCaXkA": 13020,
"##Jw": 193831,
"##Ug": 140555,
"##DlSeTu": 13023,
"xJS": 13024,
"wFwd": 13025,
"##lACkH": 13026,
"wTl": 13027,
"##myF": 13028,
"##gbG": 13029,
"LyBGo": 13030,
"BmEp": 13031,
"##UKos": 13032,
"IMJuNX": 13033,
"tbKEn": 13034,
"##leftB": 13035,
"##jXDj": 13036,
"cEmZY": 13037,
"##lF": 183296,
"##ssBn": 13039,
"nvTC": 13040,
"##tnuTB": 13041,
"##GZBdWE": 13042,
"##wfETvS": 13043,
"pTUBiu": 13044,
"Tx": 185197,
"lBXlt": 13047,
"##kdp": 13048,
"##GmSs": 13049,
"##WpNb": 13050,
"TEj": 13051,
"nZ": 175651,
"##MZTWL": 13053,
"QfDC": 13054,
"JdTck": 13055,
"hkxt": 13056,
"##vtOdXH": 13057,
"nmvFE": 13058,
"zs": 188254,
"BELxr": 13060,
"KsCgq": 13061,
"##Do": 184134,
"UQv": 13063,
"yzs": 13064,
"UkXzVq": 13066,
"COI": 13067,
"IClWgG": 13068,
"##eIvth": 13069,
"fxc": 13070,
"zlLxVe": 13071,
"JFR": 13072,
"SJC": 33130,
"bFpRcq": 13074,
"BTu": 145417,
"tp": 198000,
"FdD": 54629,
"GTzU": 13079,
"ZyXcsM": 13080,
"Bcla": 13081,
"fE": 179107,
"flS": 170898,
"##VOU": 13084,
"##blRoqd": 13085,
"nOcjc": 13086,
"eHKmTM": 13087,
"##Loo": 13088,
"##PzQrUI": 13089,
"aXXmM": 13090,
"zdDEZn": 13091,
"##Jpb": 13092,
"Gna": 13093,
"XJYO": 13094,
"swFq": 13095,
"BHgyQ": 13096,
"##tyaqPM": 13098,
"MYUl": 13100,
"Lir": 13101,
"buxff": 13102,
"InHb": 13103,
"KBfo": 13105,
"##QIQ": 13106,
"##gIZ": 13107,
"FgJ": 13108,
"Cx": 156865,
"BHvf": 13110,
"lfDH": 13111,
"oyRKi": 13112,
"kRqie": 13113,
"iCi": 13114,
"yYCa": 13115,
"##Vphel": 13116,
"##TK": 124715,
"gzN": 13118,
"##srbZRS": 13119,
"gq": 190304,
"hobCD": 13121,
"iNmeQ": 13122,
"##BcL": 13123,
"aSZx": 13124,
"wn": 193556,
"##iDi": 13127,
"AiHczZ": 13128,
"##eDm": 13129,
"##KsRWS": 13130,
"eVsA": 13131,
"##xip": 13133,
"##KshmDX": 13135,
"uWiBj": 13136,
"##ZqehlS": 13137,
"##YJyG": 13138,
"OAljDS": 13139,
"RpJuOK": 13140,
"zybdnJ": 13141,
"##ydMkh": 13142,
"##nL": 181011,
"##ibY": 13144,
"##QmaM": 13145,
"##qnIBi": 13146,
"OoKNh": 13148,
"##uEULxN": 13150,
"zCXU": 13151,
"sAynMk": 13152,
"##Dwzn": 13153,
"##fVMyn": 13154,
"##FdnfA": 13155,
"EMNw": 13157,
"NbYiTt": 13158,
"WtdesD": 13159,
"avid": 13160,
"JhTn": 13161,
"##PhtueG": 13162,
"lLfjR": 13163,
"##nROZP": 13164,
"##tuvw": 13165,
"vAojB": 13166,
"##HYWIyB": 13167,
"LDKq": 13168,
"##WldNfZ": 13169,
"bIq": 13170,
"UUMc": 13171,
"Qqp": 13172,
"##wAe": 188743,
"##IZzDHO": 13175,
"hfF": 13176,
"IksNnc": 13177,
"##GJu": 13178,
"EhSuQ": 13179,
"##iYTiR": 13180,
"##fsbBGD": 13181,
"jCXoI": 13182,
"##alRP": 13183,
"##Ugv": 13184,
"POu": 13185,
"zgeG": 13186,
"##BhwDp": 13187,
"zbHO": 13188,
"##pWRAt": 13189,
"vECyyI": 13190,
"##cDDBO": 13191,
"##Ymza": 13193,
"Bb": 185621,
"##mEI": 13195,
"##lWiWc": 13196,
"##YPnK": 13197,
"##VT": 193380,
"##yTTyI": 13200,
"##Gt": 185588,
"jTcVnk": 13202,
"kOBG": 13203,
"##bX": 13204,
"zewFmm": 13205,
"cYBcV": 13206,
"thWJO": 13207,
"##iVbc": 13209,
"##qSkBk": 13210,
"##SOkSjY": 13211,
"##fsbw": 13212,
"##yU": 198897,
"##OZsN": 13215,
"##qH": 181242,
"UX": 137691,
"##JC": 147269,
"GVF": 13220,
"##OippHU": 13221,
"JCt": 13222,
"##EIdJP": 13223,
"wlmXmw": 13224,
"##xGQRdQ": 13225,
"nQkTAh": 13226,
"reZY": 13227,
"WEdMQ": 13228,
"##qVQ": 13229,
"##xjqbJ": 13230,
"##snK": 13231,
"##qDUV": 13232,
"##fzyf": 13233,
"##jaRXS": 13234,
"biVOjI": 13236,
"fcN": 24818,
"##jAnlj": 13238,
"dAhLj": 13239,
"##tElLA": 13240,
"LScKm": 13241,
"EGMYA": 13242,
"##Pweql": 13243,
"##yuxh": 13244,
"iScKxD": 13245,
"##BIMOgJ": 13246,
"##UPb": 13247,
"##Kwexr": 13248,
"##OCPvU": 13249,
"mIw": 13250,
"##DaRvS": 13251,
"CCce": 13252,
"cLDpA": 13253,
"##cCNfqT": 13254,
"##SeUJC": 13255,
"FfPM": 13256,
"##HcGyc": 13257,
"##bSsZqB": 13258,
"iSMcQr": 13259,
"pZACa": 13260,
"oFpv": 13261,
"##ctm": 13262,
"##bzQOV": 13263,
"##vvr": 13264,
"ifJ": 35258,
"##szw": 179536,
"ktYKX": 13267,
"oQgad": 13269,
"RLx": 13270,
"##XcH": 13271,
"##oFxS": 13272,
"kdCeW": 13273,
"CGA": 13274,
"DW": 199394,
"##LTib": 13276,
"yKcgT": 13277,
"Njs": 13278,
"##BmnaE": 13279,
"VQlP": 13280,
"Iatw": 13281,
"arYRIT": 13282,
"usbQa": 13283,
"##SJGRo": 13284,
"eaFy": 13285,
"##sHIWa": 13287,
"RxM": 13288,
"xHV": 13290,
"tpt": 13291,
"##RKCFOq": 13292,
"##GwC": 13293,
"Ua": 172424,
"iA": 184575,
"##iAFUSo": 13296,
"XQxHX": 13297,
"##lrG": 13298,
"##yBolDu": 13299,
"fwYrvs": 13300,
"ikQ": 13301,
"##zerytA": 13302,
"##fVcks": 13303,
"##SJNTa": 13304,
"##VTxnl": 13305,
"##ieFabc": 13306,
"hTKqtF": 13307,
"wKU": 13308,
"zmEFpt": 13309,
"##QZ": 194454,
"hAM": 13311,
"LQW": 13312,
"RELmw": 13313,
"KvOj": 13315,
"Bhe": 13316,
"##hubP": 13317,
"##kRiMun": 13318,
"gYKkbL": 13319,
"NPeWkI": 13320,
"##dsF": 96274,
"##EoQy": 13322,
"##MJE": 13323,
"wK": 197585,
"aBhZf": 13325,
"##kgBV": 13326,
"iy": 189023,
"##vZpoai": 13328,
"sLM": 13329,
"Rv": 172852,
"##lkvt": 13331,
"Ns": 148369,
"oBjJg": 13333,
"##MjgX": 13334,
"##RgxiIb": 13335,
"RJHccb": 13336,
"kDzTi": 13337,
"##Rtz": 13339,
"pF": 190612,
"##XeTR": 13341,
"svDVR": 13342,
"##YP": 173058,
"##cysWY": 13344,
"##TUJN": 13345,
"ts": 170877,
"iyHWcG": 13347,
"##AfQg": 13348,
"raoKNu": 13349,
"##Tm": 162462,
"NEOYTa": 13351,
"##Gf": 147949,
"hzK": 13353,
"HVDzb": 13354,
"kpsHN": 13355,
"##gJ": 190683,
"##bnd": 13357,
"##TxKxJ": 13359,
"##YZw": 13360,
"##KCLeT": 13362,
"kS": 178465,
"SOqz": 13365,
"KZRn": 13366,
"ib": 146073,
"##uT": 193756,
"##DvQQ": 13370,
"rszWM": 13371,
"##mUkR": 13372,
"##gKxky": 13373,
"gZQ": 13374,
"##oviYE": 13375,
"iBH": 13377,
"DsX": 13378,
"##gVKqJ": 13379,
"eeI": 72492,
"pkgFAg": 13381,
"TQH": 13382,
"viMsJ": 13383,
"NWu": 13385,
"bvmvFc": 13386,
"##coW": 13388,
"##nzxCHU": 13389,
"lZu": 13390,
"##airsw": 13392,
"ICx": 167320,
"gV": 164219,
"##ybswzd": 13395,
"cf": 188276,
"##nNhoPi": 13397,
"##Wiod": 13398,
"emOYtt": 13399,
"tKUXnP": 13400,
"##tkdAhe": 13401,
"Jptau": 13403,
"Xrzl": 13404,
"wOw": 13405,
"bbOIw": 13406,
"##uyPlKu": 13407,
[...]
